0007
0006
0006
000C
FFF2
001E
0020
002B
001F
FFF2
FFE8
001D
0016
0010
FFC7
FFF9
003B
0039
002D
001B
0016
0027
003C
FFF6
FFF4
FFDE
0019
0030
FFDA
003F
0026
001D
003C
0030
0035
FFCD
0019
0013
0002
FFF3
FFB5
0012
0011
000C
0022
002D
0022
0005
FFF5
FFFD
0016
FFF8
002E
FFD9
0004
FFB5
000F
002A
0017
001E
FFFA
0015
FFFF
FFF8
FFFD
0003
FFEA
0004
0007
FFF5
FFFF
001A
FFF7
000D
FFE7
FFE3
000E
FFF8
0011
FFFF
0018
002B
FFD9
FFE7
FFDA
0000
001F
FFDB
000E
003B
FFE0
FFE0
FFFE
FFD4
0042
0015
000C
0006
FFEF
FFF5
0030
000C
FFF3
FFD7
0000
FFF6
001E
FFEE
0014
FFF0
FFEA
0023
0038
000A
FFE9
000F
FFFF
FFF9
0006
FFF9
FFF8
0002
0030
002E
0001
001E
FFEB
FFFF
