0004
0021
0011
FFFF
0009
0003
0015
0002
000C
0006
0016
FFE9
001F
0002
0004
FFE0
001C
0017
0009
001C
0012
0025
0008
0013
0022
0023
0023
0022
0013
0000
FFFA
0008
000A
FFF6
001E
001E
FFF5
001C
0014
FFF7
001A
0007
0004
0015
0010
0032
FFF4
0000
FFF4
FFF9
001C
FFFB
0001
001D
0004
0024
FFFF
001A
0001
001E
0008
FFF8
001F
FFF5
