0015
0007
004A
0034
000C
0017
FFD4
FFFA
FFCB
FFAD
000C
0052
FF55
FFEA
FFDB
FFE9
0020
000A
0021
FFEF
FFE5
FFAC
FFEC
000D
0020
0010
FFC2
FFB5
0012
FFE7
002B
FFE6
0006
FFBE
FFD7
FFDF
0004
002C
000E
0016
0007
002A
FFC8
FFEE
FFD5
0082
FF32
FFE1
FFDF
FFFC
FF9D
FFCC
FFF7
0005
FFD6
FFFE
FFC1
FFE9
FFDA
0009
0023
0000
FFF7
004B
0057
FFF6
0030
000F
FFD9
0026
FFDD
0004
00B1
004D
001A
0016
FFEB
0033
001E
0005
0040
000A
FFFB
0000
005A
FFD0
FFA4
0014
FFFA
0011
FFEB
FF91
0003
0049
FFEA
FFCD
0007
0017
000C
0011
0013
0006
000B
0006
0047
0072
FFA4
0004
000E
0021
FFEC
FFD5
FFFB
FFD3
0015
002B
FFB7
FFE1
0007
0023
FFF3
FFD1
0015
FFEF
003C
0025
FFFA
FFFC
FFFB
FFE7
FFC3
0009
FFD5
FFCC
0032
FFDF
0001
FFDA
007A
000D
FFDC
FFDE
FFD8
FFD6
FFD3
FFFC
0013
FFE2
001C
FFF7
FFB3
0020
000D
001F
FFF5
FFFE
0016
FFFA
FFB5
0009
FFAA
FFD7
FF8C
FFF3
0006
0032
0049
FFC1
FFF4
0031
FFE9
0025
FFDD
FFB1
000B
FFD2
FFB5
FFCB
0010
FFF0
FFE9
000C
000F
FFDE
0001
0067
003A
0029
0003
0000
0003
FFF3
001A
FFE9
FFEE
0017
0003
FFC3
FFC8
002D
FFCF
0032
0004
005B
003A
0007
FFC1
FFE4
0013
FFB7
FFFE
FFD3
001C
FFED
FFD5
0012
FFD4
FFF0
FFFC
000A
FFC3
001C
0008
FFEF
FFEA
FFF0
FFFE
FFFF
0042
0028
0007
0000
0028
FF97
0018
FFE9
0003
FFE4
FFEC
0020
0026
003A
FFE6
FFF6
0015
0009
0021
002F
FFE7
0025
0001
FFFF
0010
FFE1
000B
0019
0007
0038
0024
FFDB
FFE9
0045
FFF4
0010
000A
0002
000C
FFB2
FFF0
0023
0009
FFBB
0003
FFEF
FFFA
002B
0021
FFDA
0032
FFCD
0028
FFC8
FFC7
002D
FFF5
0002
FFC3
FF95
FFD7
FFBC
000B
FF35
FFBA
FFFD
FFCA
FFD6
FFFF
FFDC
0005
0041
FFDC
FFFB
FF41
0012
FFFB
FFE5
0015
FFCD
FFD6
0007
FFEC
0014
001B
004C
FFFD
FFD1
0006
0030
FFA2
FFD4
000C
0049
FFD7
0004
0003
FFF0
001D
FFFC
0005
0026
000F
0029
000C
FF87
0000
0006
FFD8
000C
FFE7
FFF7
FFD6
0001
FFE7
FFE7
000D
0006
FFDE
000A
FFD7
0005
FFDE
0018
0015
001B
FFED
FFF8
FFF1
FFD4
FFFA
FFA6
001D
0029
0003
FFB2
FFBC
FFBB
FFFB
0025
0003
FFCA
FFE3
0007
0034
FFDB
0006
FFE5
FFEA
FFF6
FFD0
FFF5
0026
0019
0002
001B
FFCB
0014
FFF4
004B
0004
FFEE
0038
FFD0
FF8F
FFEE
0026
FFE3
FFD3
0021
FFDB
FFD3
003A
0001
0023
FFF7
FFE2
0021
FFFF
0034
003F
FFDF
FFA2
0037
FFD0
FFDD
0013
0014
0010
003B
FFE9
FFD1
0014
FFA2
FFD4
FFDE
FFF6
FFB9
FFFA
FFF9
000E
001C
000D
FFF9
002B
000B
001E
0034
0017
0016
FFC6
0015
FFF3
002E
0003
FFC3
0024
000C
FFE9
0025
0025
004E
0001
FFFF
FFC3
FFDF
0001
0008
FFFF
FFE3
002C
FFDE
FFD9
FFCE
0012
FFC4
FFF4
FFEC
FFAE
000F
0009
0013
FFE9
FFFA
FFFF
FFFF
0018
002B
0031
000D
FFE8
FFEC
FFEF
0018
000E
FFE4
FFC4
FF93
FFCB
FFB0
003B
0045
004C
0013
0030
0038
FFEB
0047
FFFB
0004
000D
FFAB
FFE3
FFF3
FFF7
0020
002A
FFFD
0028
000E
0034
FFF4
0028
FFDF
0007
0027
FFC3
0001
0035
FFF1
FFA8
FF7C
001D
FFAC
FFF8
0010
0003
FFDC
0007
0014
0014
FFF8
000E
0010
FFE6
FFE3
FFB7
FFF0
FFE0
0001
FF58
001A
0035
FFDF
0009
FFF9
FFEB
FFE7
FFFC
FFE1
0011
0012
FFEC
0022
001D
FFF0
FFD3
003A
002D
002B
0030
0013
0005
001C
0012
FFFC
FFF8
0001
FFCE
FFE4
FFBC
FFD7
0049
001A
003A
FFE0
0017
002B
FFB5
FFC9
0006
FF64
FFFC
FFD7
000A
FF8E
FFF4
FFA0
0007
FFE3
FFF8
0004
FFE6
0014
FFFC
0008
0014
0033
001D
FFC0
0022
FFCF
FFF4
0011
0055
FFD8
0005
0013
FFFE
0045
0014
FFF2
0040
FFDF
0013
FFDE
0018
FFF1
0021
000C
FFE0
FF77
FF68
0016
FFD7
001D
002C
FFFF
FFDC
FFED
FFFA
002F
0092
0016
FFDC
002E
0012
001C
FFF4
0009
FFBD
FFF7
FFF0
0067
002B
001A
0006
0025
FFE7
FFFC
FFF7
0003
003E
0009
FFD3
0026
FF77
FFE0
FFE6
FFFC
FFC9
FFDA
0037
FFB4
FFFD
002D
000A
FFC8
FFF6
FFB6
FF96
FFDC
000C
FFB3
FFE5
FFC7
FFC1
FFE8
001B
000B
0011
0042
FFE2
FFED
000F
FFE8
0039
FFF3
FFEF
0050
FFDB
FFD0
FFFE
0013
0021
FFC3
FFEC
0045
0017
FFD0
FFC4
FFEB
0044
000E
FFA3
FFDB
FFB7
FFCF
FFD1
000D
0000
FF90
FFC9
FFDB
0018
FF79
FFC0
0040
000A
FFC7
0020
0009
FF9D
001E
FFEA
FFBF
FFC5
FFCE
FFD3
FFE0
000D
0017
FFDA
FFC6
FFF8
FFE3
FFCF
001A
002A
FFB4
002B
0036
FFAD
000B
FF9B
FF99
FFD9
0028
FFF3
0027
000D
0000
FFB4
FFF2
FFF4
00B3
0020
0000
FFE8
FFD9
FFFE
FFC0
FFFB
003B
FFEE
0003
FFF1
FFEA
0031
002C
FFFE
FFF4
FFF9
0016
0059
FFBF
FFFF
FFD2
FFDF
FFF5
0029
0008
0020
0039
001A
FF8A
002E
0009
0000
FFF9
FFFD
FFEB
FFFB
FFDB
FFCE
FFD1
0021
FF98
FFF8
0008
FFF4
FFD5
0010
0018
004B
0001
000C
FFE9
0008
004B
FFA3
FFF8
0070
0028
FFA9
FFE9
0036
FF8A
0002
FFF1
0048
004A
002C
FFEB
0015
0027
0025
0011
FFF8
0008
0009
FFCC
FFD9
FFC7
FFBC
FFE1
FFF1
FF94
FFCB
0003
002F
FFEA
0019
0040
FFF9
0030
FFFF
FFFD
000F
0045
FFE6
FFFC
0009
FFEB
001F
0011
FFF4
0045
FFFF
0025
003B
0011
FFBC
FF9A
0034
0048
000E
001C
FFA9
0000
FFE6
FFF8
002D
FFD6
FFD1
0006
FFCC
0000
0004
FFFD
FFE3
FFFC
001F
FFDE
FFAC
FFDF
FFFD
FFC8
FFCD
0007
000A
0035
FFEB
FFE3
0065
FFF0
FF86
0031
0007
0009
0007
FFF2
0030
001F
FF7F
0042
0057
FFEE
FF6D
001E
FFDD
FFE7
FFCD
0033
FFD1
001C
FFAB
FFD4
FFCF
0000
FFA2
FFD8
0005
FFF2
FFCA
0005
FFF4
004D
FFE1
001A
000B
FFAD
FFDF
FFFB
000E
003F
FFFD
FFC1
0031
0029
000A
FFA9
FFE6
FFE3
0017
0009
FFE5
FFDB
FFEF
0029
0027
FFF9
FFD0
0007
000C
000A
0017
FFBF
FFE1
0009
FF8C
0016
FFFB
FFF8
0020
FFF1
FFD3
FFC3
FFDB
0007
FFFE
0008
0022
FFC8
0029
000C
FFD3
FFF2
FFFD
FFF7
0039
FFD5
FFD5
FFF2
0005
FFA3
FFFD
FFD1
FFDB
FFE1
0009
FF46
FFFE
0018
0000
0011
FFF0
FFBC
0044
FFEB
FFEE
0039
001A
FFEF
0021
FFE5
FFDB
FFBD
002D
FFFF
001A
001F
FFCF
FFF9
0030
FFB5
FFD4
0054
006C
0017
FFED
002F
FFDD
FFEF
0018
FFFC
FFD6
0036
0033
FFF5
FFE8
FF85
0010
FFE5
0004
FFF7
0036
0008
0024
FFA9
FFFE
001C
0035
0011
FFEB
FFFF
FFFD
0007
FFBB
FFD4
005B
002D
0016
FFAE
FF7F
0016
0002
FFFD
000E
0038
0018
002E
FFF6
FFC5
001E
001F
FF76
FFC0
FFEA
FF8F
0044
FFA7
000F
001A
0002
FFDA
0006
000B
FFD2
FFD1
004F
FFE0
FFD4
FFDE
FFC2
000F
FFB9
0014
0018
FFD2
0037
0030
002A
0002
0024
FFD9
000C
0001
FFFC
FFF2
0021
FFF6
0027
FFEB
003F
0055
FFFB
0038
FFF6
0020
0047
FFFB
0017
000F
FFFD
FFC8
003A
0010
0002
FFD9
FFE1
FF5D
FFC7
FFE3
FF5B
FFB2
FFCF
0031
FFEE
FFD7
FFF2
FFD8
0018
FFFB
FFE6
FFE9
FFF5
001B
FFCC
FFF1
0034
000B
0043
FFEB
0031
0002
0013
FFCD
FFB7
000D
001A
0014
FFCE
FFF0
FFFD
FF93
FFF5
FFE6
FFD8
0010
FFFE
FFEF
FFB4
FFE2
FFDE
FFBC
FFF2
0005
FFDC
FFF5
0016
FFF0
001D
0006
FFF7
0028
0021
FFCE
FFBC
0021
FFEB
0006
FFEB
FFEC
000F
FF7C
FFF7
0003
002B
000C
FFFB
0016
0011
000C
0033
0012
FFFC
FFFD
FFEE
FFED
FFEF
0008
FFF5
0019
FFDF
002E
003C
FFDB
000B
FFBB
000B
FFCA
0000
FFE5
FFD6
FFF9
000D
FFB9
0008
0007
FFC2
FFC7
0059
FFDA
0043
FFF3
FFD0
001D
FFFD
FFD8
0007
FFD7
0007
0031
FFF9
FFD1
001A
0028
FFEA
FFD6
0007
FFD0
FFEC
FFC2
FF9D
FFD0
0011
FFA3
FFF3
0014
FFEC
0015
0007
FFD7
FFF8
0019
0010
0003
003B
0000
FFC9
0030
FFAE
FF9F
0078
0000
FFCB
000C
FFD4
FFAE
FFEA
0005
FFFB
FF9E
0023
0059
0025
FFF0
FFAA
0000
0021
0008
FFD1
000F
FFB0
FFDC
FFF5
000E
FFC3
0006
FFFF
0005
0008
0001
004F
0048
0051
0030
002A
FFBE
FFFA
FFFB
FFEB
0013
002D
008D
FFCE
FFCF
004B
001F
003C
001A
FFEC
000A
FFCA
002F
FFF5
0010
001C
FF75
0009
0029
000C
FF73
FFFE
0010
FFCD
FFDB
FFE7
FFEA
FF7B
FFF8
FFB6
FFE1
FFC7
FFCD
FFDA
FFF0
FFFD
0014
0003
000A
001F
0010
0025
FFE2
000B
0034
FFFD
FF75
FFE7
FFC9
0010
FFDC
FFE5
0002
FFDA
0046
FFE9
FFA2
0009
0000
003C
FFF4
0029
FFD5
004F
003A
FFD4
FFDA
0043
000C
0003
0008
FFE2
0000
FFB0
0034
006D
FFF9
FFDF
000D
FFE3
0004
FFAD
FFFB
FFD9
005E
0061
0005
FFE0
FFA0
FFCF
FFCF
0048
0030
0006
0047
0004
FFE0
FFD1
FFDC
FFFF
FFB2
FFE5
000F
FFFE
FFFC
FFBC
FFDC
0000
000C
0043
0004
FFED
0010
0008
FFFC
0016
0052
0025
0051
FFD3
FFEA
FFBB
FFE7
FFCF
0079
FFD7
FFD4
002C
004E
001C
FFC7
0006
0045
003B
0024
0037
FFD6
FF8B
FFD1
0029
FFF6
000B
0009
FFBE
FFF6
FFC6
001A
FFD7
0010
0014
FFEC
0002
FFEB
FFDC
001A
FFEC
0026
FFF0
0020
000C
FFE5
FFE4
FFF6
0010
000A
FFDD
FFF2
FFEF
FFC0
FFE0
FFCD
004F
0053
000E
FF96
0025
0029
0011
001F
0074
0022
FFF9
FFC2
0003
FFA5
FFF8
FFF1
FF0E
0002
FFEF
003B
FFAB
FFF7
0019
FFEA
000F
FFEF
FFE1
005C
FFFF
FFE8
001F
FFAA
002B
FFC0
003A
0005
FFE7
0015
0009
FFE5
003A
0006
FFE1
003A
0025
0042
002F
007B
002E
FFBE
000A
000A
FFA3
FFDA
FF6E
FFE7
FFBA
FF56
0002
0001
000A
0008
0009
FFDC
001C
FFDF
FFD7
FFC4
FFC8
FFDA
FFE5
0002
001B
004B
0012
FFC3
FFDB
003D
0012
0035
FFEA
0000
0010
FFED
0036
FFEF
FF92
002C
0016
FFE2
002C
FFB6
FFD3
FFE9
FFDE
FFAC
FFF0
FFEB
FFB1
000F
0010
FFBC
FFE4
FFFE
FFF8
FFE1
FFE0
FFF9
0048
0014
000A
0014
003C
FFE3
FFD9
000C
FFE8
001D
000F
FFC4
FFDE
0027
FFBA
FFD2
FFED
005B
000C
FF94
FFD6
003B
0000
000E
FFE4
FFE2
FFF5
FFE6
0000
FFE9
FFE6
FFC1
FFFC
000D
FFBA
0005
FFE3
FFD1
FFFA
FFE4
0024
0001
FF70
000E
002B
FF7B
FFD4
FFBD
FFE5
FFF3
0036
FFA8
0020
FFFD
FFF1
0044
0005
0020
FFB3
000A
0035
FFA2
FFF3
0006
0028
FFDD
FFFF
FFD0
0001
FFD0
FFF9
FFC4
FFD6
FFFC
0008
0010
FFF5
0003
0005
FFDF
0003
FFFF
0049
0001
FFF3
FFEB
0023
0029
0005
FFFB
FFF1
FFAA
0060
0019
FFFA
FFFD
FFF6
0036
0007
FFDB
001F
0018
002D
FFF9
FFF8
0009
FFFB
FFFD
FFE2
FFCC
0000
FFDA
FFDA
FFEA
FFF5
FFE7
FFBF
001A
FFF7
0014
FFE9
FFD4
FFFB
FFC2
FFD4
FFD2
FFE1
0028
0028
FFEB
FFD6
FFE9
0018
0029
0032
FFEF
001C
FFDC
FFF6
FFDD
FFD0
FFE3
FFF4
004E
FFEA
001D
0018
000B
000E
FFFF
000A
FF6E
FFF6
FFB8
0008
FFE3
FFF4
009D
001D
0001
FFE5
0015
000B
FFED
FFD3
0012
FFE6
FFCC
0035
000A
0010
0006
FFEE
FFDB
0026
0032
FFEA
0014
FFDD
0007
0025
FFC1
003A
FFF7
000B
FFAE
0028
0014
001A
FFF9
FFFA
FFDF
FFDC
000C
0027
FFCA
FFF3
0008
FFE6
FFB1
FFC2
FFBC
FFE0
FFD9
0024
FFF6
000B
FFE0
FFF1
0019
FFD1
0025
FFE7
0004
FFA2
0007
001E
FFA4
FFD8
FF82
001E
FFFE
0045
FFDD
FFE7
FFD5
001C
FFCD
FFB1
FF54
FFD9
0005
FFFE
003C
FFF1
0012
0002
FFFD
001F
0021
FF72
FFE7
FFE0
0019
FFFC
FFB7
0045
004D
FFE9
FFF2
0018
0027
0009
FFE2
FFFD
FFED
0008
001E
FFCD
000B
FFB3
0000
FFF0
FFC7
FFFF
0001
FFE6
007C
0007
FFFF
0030
FFCD
FFFB
FFD8
FFDC
FFF4
0028
FF75
FFBB
FFBC
FFD4
0004
FFE4
FFC1
FFE8
FFDA
FFCE
FFF3
FFDC
0003
FFF4
001C
FFD4
0004
0014
0004
0013
FFFC
FFEA
FFC2
FFD6
0051
003D
FFEF
0018
0008
FFFA
0026
FFE5
0063
FF17
0010
FFFC
FFB3
FFDF
FF86
FFF3
FFF4
FED8
FFE6
0017
FF9D
FF69
0012
FFEB
000C
FFE2
FFCF
FFA5
0017
FFE0
FFEC
004B
FFD3
0023
FFE2
002D
003D
FFD7
FFD3
000A
0012
000C
FFFC
0020
001E
0014
FFB8
001A
0070
FFEE
FFA6
FF88
0008
0051
0003
0015
FFFC
FFCA
FFDE
0012
FFD9
FF7C
0010
0007
001F
FFFD
000F
FFE4
0046
001D
FFEF
001A
FFC1
FFCB
FFD1
FFF3
FFF3
FF91
0007
0013
0007
002E
0032
0051
0024
FFFB
FFE6
FFC7
FFCC
FFCF
0039
FFE7
0029
FFDF
0015
0019
FFE5
FFF7
0008
003C
FFED
0009
FFB1
FFCB
FFDC
0001
000B
FFEA
FF9A
0020
FFFA
FFDD
FFF0
FFE6
0046
002F
FFF5
000F
FFED
0009
0062
001A
0019
FFF4
FFD9
0000
FFE4
FFD4
FFC1
003C
0009
002B
FFA6
FF82
FFEF
0034
FFDE
FFF7
FFEB
FFAD
0012
FFF5
0006
0008
0016
FFF4
FFFD
FFF9
FFF4
FFFB
000E
0066
0033
FFF2
0009
FFEF
FFCF
0008
0002
FFB9
FFD1
FFE4
FFFF
FF83
0004
0036
0037
0007
001C
FFE5
FFCB
007F
FFD2
FFF7
0003
FFE7
0057
FFC6
002F
FFE2
FFBA
0031
FFDF
000F
FFB2
FFB1
FFFD
FFE7
FFFA
FFD3
0005
FFFF
FFDC
0008
004E
FFFB
FFE4
FFDA
FFD1
0006
FFDB
FFD4
0005
FFF2
FFEE
0006
0037
0004
003D
001D
0045
FFFB
FFD7
0025
0025
001C
FFF7
0004
FFFF
FFE0
0005
FFED
FFD4
FFDC
0000
FFC5
0020
FFF5
0006
FFDC
FFDD
FFEA
FFD1
FFE0
FFEF
0018
001C
0049
001D
FFBC
000D
FFEA
002F
002A
FFBF
FFF9
0017
FFE9
0011
001A
0010
0031
0016
000A
FFE0
0005
0002
FFF4
FFD4
FFE7
0019
FFFA
FFF4
FFBC
0005
0016
000C
FFD1
FFD0
0009
FFF8
FFDB
0013
FFD5
FF82
FFC9
FFFC
0022
002C
000D
FFE6
FFEA
FFDA
0040
FFE9
003C
FFE8
FFC6
001C
0007
FFBD
FFD9
0027
0027
FFE4
FFFF
0022
0016
000C
003E
000C
FFE7
FFC2
FFE8
FFC5
0012
000D
FFE0
001C
FFF3
FFF7
0001
FFEF
002A
0011
0008
001D
000F
FFEF
0014
FFB4
FFF6
0062
002A
FFAC
FFF4
000D
002E
003F
0023
0014
0042
FFF0
0003
0068
FF91
FFC0
FFD6
FF9D
0004
0006
FFF6
FFE3
0005
FFE8
006C
FFFE
001A
00ED
FF97
FFFA
000E
000C
001B
002D
003E
0045
000E
FFF0
FFF7
FFF6
FFED
0007
FFF4
FF96
0058
001F
FFEC
FFD7
0007
FFD9
0003
FFE6
0021
000E
FFEA
FFA7
FFB4
FFEF
FF6E
0000
0027
000A
0043
FFF6
FFD3
00EA
0027
0030
0099
0021
FFD5
FFF1
000D
000E
FFCD
0045
FF9B
0002
0019
FFD2
0009
0021
000A
FFFD
FFC8
004C
0048
FFE8
0010
000D
0027
0017
002B
0040
FFA4
FFD0
FFCF
FFFA
005D
FF4D
0005
0042
FFC1
FF2E
FFC4
FFA3
0017
0015
0017
004F
0030
FFF6
FFDC
FFFD
FFCF
FFBB
002F
000E
002D
0014
FFC4
FFF6
003E
000D
000F
0015
0061
FFF7
0031
0002
FFF7
FFF1
FFF0
FFD9
FFBA
FFB0
FFB0
FFAC
0031
FF57
002E
0001
FFDA
FFEC
0008
FFF2
FFE4
0028
FFF3
FFE1
FF9E
FFC6
0004
0003
FFEA
0019
FFC6
0023
002C
FFDB
0018
0039
FFE2
FFD0
001D
002D
FFEA
000C
FFB2
002A
FFE3
000E
FFE4
001F
FFE8
001E
FFE1
FFE7
0038
0013
FFE1
0011
0015
003D
FFFD
FFE3
FFE6
FFCA
0009
0002
FFEE
0026
0011
FFF2
FFED
000E
0018
FFF1
002F
0025
FFD5
FFC8
FFED
000F
0050
FFEE
000B
FFCA
FFF1
0006
FFCB
FFDA
FFC2
FFC5
FFE5
001B
001A
FFFA
0014
0030
002E
0003
0005
FFD9
FFC1
FFF6
FF91
FFE0
0041
FE5C
FFE6
FFEB
0078
000A
FFE9
002C
FFF9
FFF6
FFC1
FFF0
001F
0006
FFF8
0010
FFDA
0000
001A
0016
000C
FFF2
FFB7
FFE7
FFF3
FFD8
FFDD
0003
FFC0
0000
FFD5
FFE3
FFC8
0018
0013
0026
FFFF
FFE5
FFC0
FFFE
000A
FFFB
FFCC
FFCB
FFF0
002D
FFF1
FFE1
FFDA
FFEA
FFC7
0004
0017
005E
FFFE
0037
FFC7
FFD3
000F
FFDF
FFB7
0073
0000
FFCE
FFF7
FFF9
FFC3
0034
0037
FFEF
FFD9
FFD6
003C
FFE2
000E
001F
FF8D
FFFF
001E
0019
FFD6
000A
0034
0026
0012
002B
0044
001B
FFE0
FFBF
FFDC
FFEC
001E
FFF3
0038
FFC9
000B
FFE1
FFED
001E
FFFF
FFFD
FF99
001C
0041
FFB4
FFC7
FFD5
FFF9
FFE4
0040
FFEE
FFCE
0033
FFEC
0021
FE9B
0011
FFF9
FFF0
FFF4
FFAD
0006
FFCC
FF77
000D
0015
0038
0011
000E
FFD7
FFE9
0013
0003
FFBB
001C
FFD0
0006
0028
FFBF
003D
FFC3
0028
000D
FFF0
FFF6
FFBB
FFFC
001B
0000
000C
0018
002E
0027
0035
0032
0001
FFF5
0031
FFFE
FFDE
FFF3
FFC2
0009
001F
FFB5
FFD0
FFFD
FFEC
0017
FFFE
FFC8
0014
FFD7
0038
FFE9
FFE4
0026
0025
0036
001E
0021
0007
FFC8
0065
FFFC
FFBE
FFFD
0037
FFD8
FFE4
0015
0029
FFF0
0004
FFC3
000C
0007
FFDE
0016
0001
003C
FFFD
0028
000A
FFB6
0000
FFF0
FFDF
FFFB
FFAE
FFD2
FFE6
FFDF
000D
FFF5
003F
0038
FFC7
FFF9
0019
FFD4
FFAC
FFBF
FFB7
001B
FFF5
0024
FFB9
0029
FFE0
FFD7
0010
005E
0013
FFF5
FFDE
0041
FFF6
0017
0010
FFD5
FFC2
FFED
FFC5
FFF4
FFEF
FFA3
FFDA
FFE0
FF7F
0010
000D
0021
FFDD
FFE4
FFC4
FFE7
FFE4
FFD9
FFCD
0007
FFFF
FFD3
FFE3
0002
0050
0026
FFFB
FF8E
FFE9
0027
0005
FFE8
0019
000D
0016
0012
FFCE
000D
0015
FFF1
FFEF
FFEF
0001
FF51
0011
0029
FFE3
FFED
0023
FFF9
0021
000D
FFC2
0019
0010
FFA7
FFD2
FFB0
FFD2
FFDF
0002
000D
FFD3
0029
FFD7
FFDF
005B
FFB1
FFF6
0009
FF77
003F
000B
FFA3
FFFF
FFDD
FFE4
FFE5
FFFF
0030
FFFA
0012
0019
FFC6
FFC4
FFF2
0024
FFBD
FFCD
FFC6
0029
001C
0008
FFD3
FFFE
0000
FFBC
0024
008C
FFC6
FFC2
FFF6
FFF0
FFEC
FFEF
FFF7
002B
0046
0021
FF78
FFF1
FFAF
FFF0
FFE7
0062
002F
FFB9
FFE8
FFFE
FFC9
FFFD
0000
FFF6
FFE8
000A
FF81
0010
FFB9
FFD2
FFED
FFE7
FFFF
FFBF
FFFC
0002
0009
FFEE
FFBE
0025
003B
FFFF
0045
0026
FFEF
0014
0022
003D
FF80
FFDF
FFEE
FFF6
FFA5
0018
0066
0031
0023
FFE1
0017
000B
FFBE
002F
003F
FFA6
FFF7
FFD7
FFE8
FFAC
0001
FFB6
FF07
FFD3
FFED
FFC4
0012
0007
FFD4
FFFF
0009
FFF1
FFCA
0047
FFE8
FFDC
0019
0032
0022
0004
0041
FFF9
001B
0012
FFA5
0023
FFA3
0002
FFF4
FFFA
0031
0026
003D
FFC9
003C
0022
0010
0001
000B
FFD8
0018
0015
FFF0
000A
002B
FFF1
0039
001E
FFE0
0060
0026
0027
0031
FFFB
0071
0010
0004
0000
FFBD
FFD7
0015
0046
FFFB
0040
FFDB
FF80
0016
FFFD
0003
000F
008C
FFDD
FFCC
FFCE
FFF2
FFDE
0019
FF92
FFCF
0033
FFD2
FFC2
FFD8
FFBA
0005
FFEF
FFDD
0025
0011
FFCF
FFFC
FFE4
000C
FFFE
003C
0051
FFEC
0019
0007
FFFF
FFDB
FF9C
0025
FFD7
0041
FFC4
002B
FFF5
001E
001B
0020
000A
0009
0002
0036
FFB1
0010
FFE6
FFCD
FFEE
FFDD
FFFD
FF67
FFF9
FFB1
FF0D
0008
FFF2
0080
FFE3
000F
FFD5
000E
0010
0000
FFB9
0026
FFE1
0009
002E
FFBE
FFF6
0002
001B
FFD5
0032
0050
0027
FFFF
0010
FFD7
FFC4
FFDF
0028
000A
FFD3
FFF3
FFF2
0018
FFF9
FFCF
0074
FFE8
FFCC
FFF0
0017
0023
FFEA
FFCD
FFC8
FFB1
0008
FFCA
0014
0018
FFC2
000E
FFFA
FFCC
FFE8
FFE2
0041
FFFF
FFBA
FFD7
0096
0000
0058
001D
0002
FFF3
FF9A
FFE5
0017
0015
0003
0025
FFFE
FFF4
FFFD
000C
FFEE
005B
FFD6
FFDF
FFEE
FFDC
FF2D
FFD8
FFE9
FFEB
FFD2
FFF3
FFEB
0001
0024
FFF1
0029
0021
FFE1
FFEF
0016
0007
FFE0
FFE1
0013
FFE3
0016
0027
FFD4
FF93
0014
FFF3
FFEF
0055
FFE7
FFC4
0033
0015
FFB9
FFD4
FF60
FFFB
0035
FFEC
FFEF
FFF6
FFF0
FFDA
FFF7
0018
FFBC
FFDC
FFFF
FFD4
0008
FFFF
FFE8
001B
FFF3
001E
003B
FFF5
FFE8
FFC7
0021
002C
FFF3
FFE9
FFD2
001B
FFE0
FFF2
0042
003B
0029
0003
FF88
003A
003C
FFCB
0011
FFAB
0003
003C
FFF1
001C
FFE4
FFEF
FFBD
FFE5
FFED
FFAA
000A
0004
FFEB
0012
FFF8
FFF3
001F
0006
FFEA
001A
000C
001B
FFDB
001C
FFC8
FFFE
000B
0023
FFB7
0012
FFB9
0005
0010
0036
FFF2
000F
FFE4
0014
FFE6
0003
FFBA
0001
FFD1
FFFE
FF9C
FFD4
FFD4
FF8F
FFF3
FFEA
FF9C
000B
000A
FFFB
0014
FFD5
FFE3
002E
0041
FFFB
0034
FFC8
FFC6
0026
FFA6
FFCC
0087
0015
0056
001C
0011
0004
FFEC
0026
FFCC
FFE3
0030
FFAF
FFEE
0022
0023
0019
FFC2
0031
001E
0003
FFCD
004B
0070
000F
0014
000F
0002
0002
001F
0027
FFD1
FFDB
FFF0
FFF4
FFE1
FFB2
000C
000A
0031
FFF0
FFF5
004B
002D
0081
FFE8
0013
FF5A
FFBC
FFBB
FFDF
000C
0034
FFFB
FFCB
002E
FFD1
FFE8
FFF8
FFF5
FFD2
FFB8
FFE7
FFE5
FF0B
FFE6
FFD4
FFF4
FFDA
0011
FFFA
000F
001E
FFDC
FFC2
FF77
FFF3
FFED
0005
FFD8
FFCE
0023
0004
0066
FFE5
FFCD
0035
000E
FFFB
FFDA
FFCE
0010
FFDF
FFE2
FFE9
FFDC
FF9F
0002
0027
FFFA
0020
0000
000F
0011
FFB2
FFE9
FFBC
FFF2
0008
FFEA
FFC6
FFFE
FFDB
000F
FFED
002D
0025
0022
002F
FFC5
FFC0
002A
FFEE
FFF6
004B
002C
FFCE
FFF2
FFCB
FFB9
0018
002E
FFFD
FFB0
FFFD
FFE7
FFDA
0000
0006
FFFA
FFD8
0059
FFD6
001B
FFF5
002A
FFF5
0022
FFF8
FF87
002D
0003
0036
FFF7
FFE7
FFEA
001F
0020
FFEB
FFEF
0003
0003
FFE1
FFEC
FFE0
FFEA
FF9D
004D
FFE2
0027
FFDC
FFD7
FFD5
005C
FFF6
0040
FFD1
FFD6
FFE1
0019
0039
FFF1
003C
0003
FFFC
0018
FFF0
FFF6
FFF4
000B
FFDF
000B
0029
FFEF
0028
000A
FFE6
001B
004C
002B
0037
FFE4
FFFD
FFF2
0004
0012
FFB1
FFF6
0024
0047
0042
0017
0053
0025
0019
FFD3
003B
0009
0018
FFF8
001B
0041
FFFD
0011
FFFE
0030
FFE0
FFDE
0044
0025
0018
0012
FFF0
FFF8
003C
001A
FFE2
FFF0
FFEC
FFFE
FFC3
FFEB
FFBF
FFF8
0001
FFC5
0028
001A
0015
FFF3
FF9C
0016
000C
FFFD
FFDA
0005
FFC3
0033
FFEA
001B
000D
FF48
FFF2
FFF6
FFDC
0007
FFBC
FFEC
FFC0
FFAD
001C
FFFE
FFC2
0010
0008
FFB4
FFEB
000F
FFFE
FFA5
FF50
FFFC
003D
0051
0026
002A
002B
FFFF
0014
FFE6
FFCE
0003
FFFB
0023
FFC3
001E
FFED
0039
001C
FFE0
FF8E
FFEA
FF1E
001C
FFF6
FFBA
FFEB
FFE5
FFD7
FFB1
0008
0004
FFFF
FFB0
0011
FFE2
0033
001E
0005
FFE6
000D
FFE8
000B
000C
0044
FFED
FFE8
FFE6
0005
FFB4
FFDB
FFCE
0015
FFEE
001B
FFCD
0004
FFC5
001C
0019
004B
FFC2
FFF2
001B
000C
FFE4
FFE5
FFE6
FFE0
FFE7
0023
FF8B
0007
FFF9
0048
FFE5
FFFB
FFE5
FFEB
FFD7
FFD6
FFE5
002D
0034
FFFC
FFC8
FFF0
0006
FFF1
FFFF
0023
0015
0028
0031
FFE8
0004
0022
FFDE
001C
FFEA
FFB7
FFFC
0075
002A
FF5C
0016
FFE6
FFCE
0001
0033
000F
0047
FFDA
0009
FFF3
0009
0035
FFFD
0005
0020
FFF8
FFB0
FFEA
0009
0031
FFCF
FFD1
FFE5
0011
FFBC
FFD9
FFF8
FFF5
0026
0029
0000
FFEE
0011
FFE9
FFD8
FFED
0045
0032
FFBB
0004
000E
FFFE
FFF8
0003
FFDC
FFE9
0007
0018
001D
FFD4
000D
0044
0016
0011
FFB4
0002
FFEF
0021
FFDF
FFE0
FFED
FFF2
0019
FFFB
003D
0011
0018
0016
003E
0028
FFDD
0010
001E
FFEB
001A
FFE4
0016
0003
FFE7
006A
FFE0
FFF7
001E
FFCE
FFC5
FFC6
001F
0006
FFE8
000D
FFCC
FFDD
FFD5
FFFE
FFC6
001E
0023
FFE5
FFDA
FFF5
FFED
003F
0049
0006
0035
0001
FFDB
0013
FFEA
FFAD
FFFD
FFE9
FF85
000A
005C
003D
0027
002A
0040
0023
FF9C
FFE4
0023
000E
FFF2
FFE2
FFF7
FFF0
000B
FFD6
FFE5
FFE2
FFED
0077
FFD2
0019
FFA0
001D
FFF2
002D
FFB9
FFFE
000C
0027
0066
0018
0051
001D
FFE2
FFCF
FFFF
0029
0030
002A
FFF1
0010
FFDD
FFDA
FFFB
0043
0021
FF94
FFFD
FFF7
0013
FFEA
FFDF
000F
FF7C
0009
0021
FF8F
FFE2
001A
004D
FFE3
FFDB
002D
0011
FFD4
FFB4
FFE1
0026
FFEF
0019
FFF0
0006
003B
FFE5
0004
0012
FFF4
0007
0067
000E
FFE0
FFDA
FFF1
FFB6
001D
FFAF
FFDD
0055
001D
0036
0017
FFC5
002B
FFD5
FFE4
FFD0
006A
FF88
0001
000C
003D
FF87
FFFD
FFD2
0003
0003
0036
0024
005C
0032
0001
FF8E
FFBE
FFEA
FFE2
0057
FFE6
FFF5
FFCA
FFD7
FFE7
000D
000E
0027
FFBB
FFC6
FFB2
0015
FFC3
0015
0095
0004
0001
FFE1
FFF7
FFB4
0004
0005
FF1A
FFEF
FFE8
00BA
FF75
FFFF
0018
FFE1
0025
0057
0020
0053
FFD8
FFF2
000F
0006
0030
0002
FFFC
FFF7
000E
FFFF
000D
FFE6
FFD4
000B
FFE5
FFCF
0010
FF9C
FFE1
FFB6
FFF9
0030
FFC7
FFFB
0042
FFE2
FFBE
0011
FFED
FF9D
000B
000B
0029
FF6D
FFD7
FFDA
0007
FFEC
0035
FFCC
FFE8
0016
FFF8
FFDB
FFA9
0024
0003
FFFF
0037
0022
FFB5
FFDC
FFF0
0003
001A
0013
FFD8
FFD8
FFAC
FFD2
004C
FFF9
001A
FFFD
000A
0037
0017
001E
0016
FFC0
FFDC
002C
000E
FFC8
FFE4
0005
002C
000E
FFF1
0001
001B
0046
0018
002B
0000
000D
0018
FFFA
0004
002C
0060
FFE4
FF87
FFD9
FFEE
002D
FFF7
0071
FFF1
002A
003C
FFDE
FFEF
0002
0003
FFF9
0019
001D
FF7B
0011
0005
FFCD
FFEA
0003
003E
FFDC
FFEA
FFD7
0027
0011
FFC9
FFE8
0008
FFF6
FFF5
001C
FFED
0036
001F
0000
0010
0011
0045
002D
0010
0026
000A
000C
FFBF
0004
0022
0029
001B
FFCC
0001
001D
FFFF
FFE9
FFFE
FFD0
FFE6
FFC5
FFD5
FFE5
FFD5
FFE6
0019
FFFB
FFDD
0001
FFE6
003E
FFF6
0027
FFDF
002D
FFE3
FFFA
FFC2
FFF9
FFDF
0020
FFD3
FFE2
FFFD
FFCD
0007
002B
0027
002A
FFEE
FFF2
0004
FFF4
0008
0012
FFD9
FFFF
FFF1
FFDD
FF63
000A
0036
FEC6
0003
FFD3
0127
0017
FFE7
FFD3
FFE0
FFCA
FFBA
003C
0079
FFB5
FFE8
FFDC
FFEB
FFB7
FFE3
0024
FFAD
0042
FFEA
FFDB
FFE6
FFB4
FFD1
FFE1
FFDC
001C
0037
004F
0043
001A
FEBC
FFCE
FFBD
FFE8
FFD8
FFD8
FFC9
001C
000F
FFD7
FFE1
0037
0005
000E
FFEF
FFFA
FFF4
FFE0
0014
0045
FFB7
FFD0
FFD0
FFCE
000A
0013
FFEE
FFB3
00A4
0005
0031
000A
0009
FFDA
0002
FFFE
0028
FFF6
002E
FFFE
FFC1
0005
FFFE
FFDE
FFE3
FFEC
000D
FFD7
0046
0079
0003
0004
0062
FFD2
FFF8
0020
FFDC
0007
0019
FFF0
FFF3
0011
0035
0019
000C
FFD3
0014
0033
FF95
FFAA
0024
FFCF
0014
FFF7
007C
0012
002C
0018
000D
0044
0028
FFFE
001F
002B
0001
FFF0
FFEB
FFDB
000C
FFD6
FFE0
0000
FFFA
FFBF
FFDA
FFCC
FFDA
FFED
FFCF
002F
0012
0066
0010
001C
FFD5
FFF9
0002
001B
FFDB
002B
0012
FFDE
002A
FFF5
FF8C
FFBC
FFC7
FFF6
003A
0001
FFDC
002C
000A
FFB0
0022
0007
FFE2
FFFB
001F
0001
FFF8
FFE6
FFCE
0000
FFC8
FFB4
0007
FFDE
FFEA
001E
FFDB
FFE4
FFC8
FFF2
FFE3
0007
0013
0038
FFD0
0010
FFC6
001D
0030
FFC6
FFE1
FFB4
FFF9
FFDE
003F
FFF9
0042
FFFE
FFF9
0043
FFC5
0023
FFFC
FFCC
000E
FF89
0016
FFB7
0018
FFFE
0031
000D
0025
FFEE
FFCB
0010
000F
FFF3
FFCA
FF69
000D
0028
FFE7
0017
FFB1
FFF3
FFE7
FFFB
0016
FFA0
0004
0025
FFF0
FFF4
002C
FFE1
003D
0026
002D
FFDE
0015
0012
FFFD
000E
FFEB
FFF4
FF85
0001
001E
FF12
FFD2
FFD0
0012
0005
0018
0016
FFE1
FFFE
FFDD
FFB9
0028
0012
0021
FFC6
FFE3
FFEB
FFF0
0011
0031
000F
0026
0026
0003
0028
0031
0025
FF5A
FFCD
0016
001F
000C
FFDB
FF74
0007
FFFF
FFFA
FFE3
003B
FFED
FFCE
FFB8
FFCD
FFDC
FFE5
FFE8
FFCA
000D
0012
0012
FFCA
000A
0023
002C
0010
0013
002E
FFCD
FFF5
FFBB
005F
FFF1
FFBA
0078
002D
FFF3
FFEC
FFFC
0074
002D
0025
FFE6
0057
000C
0014
0000
FFFB
0012
0006
FFC1
FFFA
FFC6
0020
FFDB
FFE2
000B
FFF3
0014
FFB9
FFF4
FFF0
FFF0
FFDA
FFD9
0009
0034
FFAC
FFF3
FFDC
0021
0002
001A
004A
002D
FFD2
FFCD
FFB8
0039
0012
FFFF
0004
FFD7
FFC1
0012
0009
0007
001A
FFEF
FFE4
FFFD
0039
FFE1
0042
0011
FFE1
FFF1
0004
FF98
FFFA
002A
FFE6
0019
FFB4
002E
005B
FFE5
FFE2
000B
0041
0002
FFFF
FFFE
FFF5
FFBE
0044
0007
FFE1
FFB5
FFE9
FFDA
0020
0044
FF7A
FFE4
0002
0012
0024
0010
FFC9
FFD8
FFFE
FFE5
FFD8
0040
FF7E
FFD4
FFFE
FF89
FFB9
000B
FFB0
FFED
FFEA
0029
0027
FFDD
0029
0004
FF98
FFEB
0005
0000
0002
FFB9
FFD0
FFE3
FFEB
FFBD
000A
0000
003C
0045
0024
FFEC
0001
0022
FFDC
000D
0012
FFDF
0044
0013
FFEE
0002
FF99
FFCA
FFE5
FFEE
FFDD
0037
FFD4
FFF5
001D
FFED
FFD6
000C
0040
000B
0011
0012
0005
FF9B
FFE1
002D
FF98
FFDC
002C
FFF0
FFE0
FFED
0042
0046
0004
FFFE
0028
FFCA
FFBD
0028
0012
0037
000B
FFBF
0005
FFE8
0009
002A
FFC5
0010
FFF9
FF6E
FF9E
FFD9
0034
0009
FFE2
001D
FFF2
FF54
0016
001C
001A
0013
FFBF
0006
FFFA
FFEC
FFFD
FF9F
FFF7
0022
FFF1
FFEB
FFE3
FFF8
000E
0001
002D
000D
FFF9
FFE6
000E
FFDB
FFDA
000D
002E
FFE8
FFBE
FFB7
FFFC
FFFF
FFED
002F
000B
0015
0022
000A
FFD4
FFC9
0011
0034
000C
000F
FFD2
000F
FFFC
0000
FF94
0033
003D
FFE6
0012
FFD7
FFD9
0008
0005
0028
FFCE
FFFB
FFF0
FFF4
FF66
FF02
0009
FFBA
000C
FFC2
FFD0
0012
001C
FFD1
FFF8
FFF1
0007
FFFA
FFE9
FFF1
FFD0
FFDF
FFE3
000B
0016
0022
002B
FFFF
002D
0005
FFDA
FFEC
FFD0
0017
0030
FF7F
FF4A
FFCA
0021
0024
0007
0010
FFF5
FFF6
0033
000F
FFAE
FFF0
FFE1
FFF4
FF6D
FFE8
FFF1
FF83
FFD5
FFF5
0092
0005
FFD1
002F
FFEE
FFF4
FFD1
FFDD
000D
FFF3
FFFE
FFDF
FFCD
000A
001A
0007
0018
FFED
FFF1
0013
FFDF
FFC4
FFCD
FFD9
FFCB
FFD3
FFE5
0034
002A
FFAE
FFEA
000F
FFE4
FFF0
FFF5
0034
FFEA
001E
0045
0016
003D
0054
000D
FFD7
FFDC
FFEB
FFF1
FFB5
0031
FFEA
FFD6
FFE9
003D
0016
0008
FF96
0003
0023
00A0
0021
FFB3
FFA2
001D
FFF7
FFDB
000E
FFF6
0011
0060
FFA9
002A
001C
0049
0004
FFC5
000F
FF1C
FFE1
001E
FF7C
FFE2
001B
FFF5
000D
FFE8
0010
000D
0014
FFC8
003C
0008
FFF0
001A
FFCC
FFDD
FFE8
FFF4
0019
0017
001C
0009
FF49
FFDD
0004
0005
0002
0088
0009
0015
001A
FFC4
0022
FFF5
FF4E
0000
0037
0000
FFF9
FFDA
FFFB
001B
FFF0
FFFB
FFCD
0010
0001
FFF1
0007
0013
FFE2
0005
FFFE
0028
0025
0060
0018
FF8D
FFFD
FFC8
FFDF
FFDD
0025
0048
FFD8
FFE8
0011
002C
0033
0015
FFFC
FF98
FFAD
000C
001F
FF51
000D
0055
FFFF
FFB0
FFDD
FFBB
FFA6
FFF1
FFF7
0046
0013
0001
FFE2
0026
FFF9
FFD8
002D
0035
FFF7
FFE4
0001
FFF8
FFDE
FFF8
FFD1
000B
FFFB
FFCD
FFB3
001A
FFFF
FFE9
FFF3
0057
FFE0
FFFC
FFE4
0020
0018
0001
000D
FFFD
0042
000E
FFCE
000E
0023
0011
FFEB
FFF7
0070
FFD0
FFE6
FFD5
FFFD
0019
FFCF
FFDA
FFE2
FFFC
0024
FFE0
001C
0038
0020
0000
0048
0018
FFDA
003E
000D
000A
FFD3
FFDD
FFAB
FFEA
0011
FFEF
FFED
0008
0039
FFF2
0009
FFE2
FFDF
FF42
FFDC
FFEA
FFBB
0010
002A
0087
FFF7
FFE4
FFF7
000B
FFFD
0004
FFFF
0032
FFFC
0011
FFE9
FFF7
FFE9
0012
FFE8
000E
0021
0018
0011
0018
FFE1
FFC3
FFCE
FFCB
FFD5
0002
FFF3
0034
0018
FFF8
0025
FFDA
FFB8
FFCF
FF33
FFE2
FFFC
FF51
FFD6
FFE5
FFC4
FFCC
FFCE
0000
0000
FFD5
FFD2
FFB6
FFDB
0009
000A
0046
0012
0035
0017
FFD9
FFEB
FFF5
FFAC
0012
0029
000B
FFC5
FFF6
FFD4
FFFC
002E
FFEB
FFF5
001B
000E
000E
FFFB
FFC3
FFF7
FFEF
0010
FFFB
FFED
FFDB
FFF4
FFEE
0021
FFE0
FFE7
001D
FFD7
0031
FFFC
FFEE
FFD5
FFDF
0003
000B
001C
0021
0008
0013
FFEE
0004
FFA2
0029
FFF0
FFF5
FFF7
002D
FFB6
0031
000E
FF96
0014
000D
000D
FFF9
FFF2
001D
FFE6
FFD6
0049
FFC3
FFE0
FFFC
FF53
FF96
FFEE
0024
FFF4
0002
002A
FFF4
000A
FFE6
0026
000B
FFEA
002D
FFA4
FFC0
0034
FFAD
001E
0003
0037
FFE8
0023
0020
FFD1
FFE5
FFAC
FFC8
FFE7
0006
00A7
000C
FFFA
0013
0005
FFCB
FFFD
0042
FF5A
FFFE
FFE5
FFDA
FFA1
FFFF
FFC7
FFE9
FFD0
002E
000E
000F
FFED
0013
FFDD
FFD2
0000
FFE3
0037
0009
0002
FFEC
FFE0
FFDF
0001
FFEC
000B
003B
FFED
000A
000A
FFE9
000D
FFF8
0024
0022
0063
FFCD
0020
FFC2
005C
0071
FFF4
000C
0010
FF98
0013
FFD4
001E
0018
FFEF
FFD6
FF97
FFB3
FFBE
0029
0010
0012
FFEE
FFFD
001F
FF93
002C
FFBD
FFCF
0005
FF90
FFB3
004B
0031
0020
FFD3
0018
0019
0018
FF2A
0002
002B
FFE5
FFCD
FFCD
FFA1
FFB7
FFE9
FFE6
00A3
FFCE
FFE9
FFF1
0017
FFE7
FFE3
0025
0014
FFEE
FFC2
FFD7
FFFC
FFDD
FFFA
FFE9
002A
0023
0023
0043
0032
FFD4
FFBA
FFF0
004F
0024
FF7B
0048
007D
000C
0040
FF78
FFF6
0006
FFFD
FFF3
FFE9
0010
FFDC
FFE1
0002
FFE9
0024
0002
FFED
FFFB
0005
000B
0015
004B
0018
0037
FFD5
FFE7
FFF2
FFEC
000E
FFF9
0034
FFE9
0016
0034
FFF3
002B
0045
003E
0015
FFF9
FFCB
FFE4
FFEC
0015
FFC6
FFFC
000D
0012
FFD5
0009
FFDA
0030
FFE3
FFEB
0049
FFBD
FFFE
FFBF
FFD9
0013
FFC9
0018
0047
003B
0048
0019
000F
FFF9
0020
0010
FFA3
FFE7
FFCE
FFCF
FFB6
FFFB
0024
0035
0031
FFF1
