001F
FF8D
0024
0012
FFD0
000B
FFF2
FFE5
0002
0002
FFF6
0003
0015
000F
0026
0015
0020
002D
0009
FFE9
0005
FFF1
002A
0009
0038
0024
FFFF
0014
FFFA
0021
0006
FFD9
FFF0
000F
0027
FFE8
0019
001E
FFDF
0034
FFE4
0005
0020
0005
0049
0016
0008
FFE9
FFD9
FFB0
0010
FFFB
000B
FFF3
0012
0028
000B
FFF5
FFE4
0010
FFE1
0017
FFFE
FFFF
0002
FFFE
0023
0025
0021
0005
FFF1
FFFE
0014
0001
0016
0002
FFEB
0010
FFDE
0020
FFD8
000D
FFBB
FFE8
0037
FFED
0019
000F
000F
0039
001C
0021
002F
0015
0004
0009
001A
FFDF
0011
0016
FFFE
0015
FFF6
0022
001B
001C
000B
0003
FFFD
FFE5
FFFC
0007
FFDA
001C
001F
0032
FFCF
002C
FFEB
001C
0004
FFFA
FFEF
0015
FFEF
0028
FFCD
0018
FFD4
0031
FFD4
FFE9
000D
0017
FFDC
000F
0019
0011
0011
FFFF
FFE9
0010
FFE8
FFD8
000C
FFEF
FFE4
0000
0025
FFE6
FFE2
0000
002E
FFBD
000D
0038
002B
002E
FFCC
0013
0013
0004
000A
0015
FFF9
FFEE
0007
FFFA
000A
0011
FFFC
0009
FFF2
0001
FFF6
0026
0006
0048
0029
0009
0007
001C
FFDB
FFC0
0002
FFFE
0010
FFAD
FFF7
001A
FFFC
001A
002B
001C
FFE1
002B
0033
FFEE
FFFF
0034
FFBB
0050
0005
0019
0016
0038
0034
FFE1
FFF8
000C
0010
FFFB
FFCA
FFE0
FFF9
FFF1
0021
000B
FFC5
0021
FFE3
FFF8
FFF7
0021
0023
000E
FF6A
FF8B
0020
FFC3
FFE4
FFC5
0023
FFDB
000F
FFEF
0008
001E
FFDF
FFC1
0025
FFF5
FFF4
000D
002E
0006
0007
002B
FFF2
0019
0026
0006
002B
0013
FFF9
FFFD
000B
FFC3
0044
001C
FFFD
FFE9
000B
FFF1
FFDE
0011
FFF1
001E
001F
FFF1
003F
001A
001D
002E
0019
0000
0014
0012
0039
0017
FFFF
0035
FFEE
0013
FFDD
FFF0
0050
0007
FFFA
0002
002E
FFF0
002D
000B
0003
003C
0013
0018
0004
0013
000D
001D
0005
FFCB
000A
FFCA
FFE9
001B
0011
FFF7
003D
007B
FFF8
FFEB
FFDF
0007
FFE7
FFF3
0016
FFFE
FFD2
FFE4
FFF7
FFD5
FFD0
FFFC
0000
FFD2
004D
FFDD
0020
FFE8
002C
FFD6
FFC9
0025
FFD6
FFD8
FFDB
0015
0010
004A
0028
000F
FFFA
0027
0027
FFEC
0061
0022
0013
FFCC
FFF6
FFEC
002D
0030
FFD9
0024
FFF8
0040
0005
0025
FFEC
0016
0026
FFF9
0025
0015
0001
FFF9
0021
0011
FFE0
0000
FFF1
000F
0000
FFFB
0011
001C
FFCD
0000
0044
FFEB
FFC2
0043
FFEC
0017
0011
000C
FFED
FFF0
FFF0
FFD4
0016
FFF5
FFFB
0018
000A
FFE5
0046
000F
FFF4
FFFB
0001
0023
001B
FFE6
0030
FFF6
FFF9
0002
001B
0004
FFF6
0000
FFF7
FFF7
0034
004D
0020
FFF1
002E
FFF4
FFEA
FFF3
0012
FFE0
0025
000E
0037
0006
FFE5
002D
0006
FFD5
FFA9
0004
002C
FFD5
0026
0002
FFFC
FFDF
0031
000D
FFF0
FFF4
000C
FFFB
FFF9
FFF5
FFF9
0000
FFED
0026
FFD2
000F
FFF1
0026
FFFE
001A
FFF4
001E
0031
FFFB
000D
FFE4
FFF8
002B
FFEF
FFA9
FFC4
FFFF
FFCB
FFF1
FFCA
002B
0016
0012
FFF8
000B
FFE9
FFD6
0028
0011
FFCF
FFFB
0013
0016
FFFD
0005
000B
0031
FFF2
FFB4
000B
0018
FFE5
0012
0028
0009
FFFE
000E
FFE1
0006
FFF7
FFEB
000D
000C
001E
FFF2
002E
FF21
006F
0000
FF9C
FFF8
FFEE
FF92
FFD8
003C
FFEF
0026
0052
FFF9
002E
0027
0024
0020
FFC2
FFB4
FFE9
FFF4
0003
003B
FFF4
004F
FFAF
0050
FFCD
FFFB
FFEC
FF77
FFC6
FFC2
002A
FFEA
002F
0008
FFAC
003A
FFA2
000D
0038
0042
FFEC
FFCB
0056
FFA8
FFEE
FF93
0039
0014
0015
FF7B
0057
FFD8
FFBA
FF90
FF85
0027
FFBB
0004
002F
0013
0024
FFEC
006A
0002
0028
0047
003B
FFAC
0032
0017
000E
FFAC
FFAC
000E
001B
0034
FFC9
0021
001D
FFEC
001E
FFEE
FFD6
001A
004A
0051
0051
0068
00B5
FFF6
0017
FFE0
002E
FFDD
0064
0006
004A
0002
FFB3
001B
007E
FFF2
FFFE
FF70
000C
000D
0036
FFFE
FF7F
0014
0002
0028
FF3B
FFEA
000B
0038
0035
0037
003E
FFF2
0002
FFE5
FF7E
003D
FFFE
005D
FFE6
0028
002C
0014
FFF8
001E
FFC3
FFFD
002E
FFEE
FFF2
FFC1
FFF4
000A
FFFE
0005
FFC0
006D
0010
003B
0015
FFF3
FFD4
FFA4
0027
FFC9
0023
FFF6
0032
0055
0034
FFFD
000D
003C
0023
002A
0028
FFF7
0044
FFFA
0024
FFC0
FFE3
0013
001E
0028
0023
0042
FF97
001F
FFE5
0038
FFC9
0009
001A
0030
0030
001A
0043
FFD0
0011
001C
FFCF
FFF1
FF8E
FF98
FF9C
002A
FFC7
0003
0009
FFC2
FFCB
000F
0047
FF80
000C
FFE3
003F
FFD9
0031
0027
FFFF
002C
FFE6
001B
FFEE
FFB4
0005
FF87
FFF8
FFD1
FFF5
FF88
FFC0
001D
FFEB
0049
FFCF
0038
004C
0019
FF6E
0000
FF9D
FFFF
FFCC
FFB7
0021
000F
002F
FFFE
FFDE
FFE3
001E
000E
FFE2
FFE6
0017
0001
FFB6
0031
FFED
FFE3
0062
FFF6
0008
009F
FFC9
0041
002C
001B
FFD8
000F
FFD4
FFEE
0006
FFF7
FFE5
FFF9
0010
FFFA
0027
FFF6
FFDE
0039
0022
001F
003C
FFF1
0001
FF9B
001B
FFE7
0045
FFEB
0042
0036
000C
0019
0011
003D
0020
0023
002C
FFE1
003E
FFEC
FFFA
FFC5
FFEF
0025
001A
004D
000C
003F
FF8C
0014
FFE3
001A
FFD6
002E
0022
004B
002F
001B
0030
FFF6
0016
0020
FFC2
FFEA
FFB3
FFAD
FFD2
0027
FFC5
0026
0000
FFCE
FFED
0009
003D
FFAD
001B
FFF6
0044
FFE6
0016
002A
FFFD
0036
FFD9
0013
FFC5
FFCB
FFC2
FF90
0010
FFFF
0025
FFE1
FFE5
001F
FFB2
001B
FFDD
0037
0011
0008
FFBB
0008
FFA8
FFF4
FFBC
FFE3
0017
0012
0020
FFE7
FFEA
FFCF
0032
0023
FFE4
FFF5
0018
000D
FFB6
0030
0010
0004
0057
FFD4
0012
FFF7
0032
FFF7
0003
0000
FFFA
0002
001B
FFE4
000A
0027
0003
001B
FFF8
0001
0013
0013
0035
FFD6
FFF1
FFCA
FFF9
0001
0061
FFFF
0018
0023
0010
FFF5
FFE9
FFF8
001B
0062
FFFE
FFED
0011
000B
FFEC
000B
FFD6
0001
0013
FFEF
0073
003D
FFBC
002F
0006
FFF7
002D
FFFA
0010
0004
005B
0011
0045
0007
0006
000D
FFE7
0028
FFDD
FFB9
002A
002F
0009
006A
000F
0018
FFE2
0005
FFF7
0034
0012
000D
0031
002A
0003
FFDF
FFE7
0038
FFD2
FFF8
000E
FFD4
FFFF
000C
0018
0001
FFC2
FFFE
0005
0063
0030
0001
0024
FFFD
0027
FFD3
001E
FFCB
FFE9
FFBE
001C
000E
0011
0049
FFFE
0015
FFD0
0012
FFF7
0003
0032
003E
FFF4
0044
0016
0005
FFEB
FFEE
0022
001E
0008
0032
0002
0028
0008
0069
FFE6
FFD3
0009
0008
FFF7
FFFD
FFEA
FFBF
0006
0019
FFEB
000E
FFF6
0003
0022
FFF4
FFEA
003A
FFFE
0018
001F
FFEA
FFFF
FFEB
002C
FFEA
001C
FFCE
003F
0002
FFEA
000B
0033
003A
0001
FFFA
002D
FFED
001B
FFD7
0004
FFDD
0013
FFD9
000E
000D
001F
003B
000D
0005
FFDE
000F
FFF9
FFE2
002B
000F
0010
FFD4
0037
FFC9
FFED
0027
FFFC
FFF5
FFB2
0011
0007
001C
FFE5
0014
FFD0
FFE2
0007
0015
FFFE
FFFB
001B
FFD8
003D
001E
0024
0006
FFE7
0028
FFFE
FFE5
FFCC
0004
FFD4
FFEF
0009
0018
001C
0011
FFE4
0010
FFD0
0022
0019
0022
000F
FFFD
FFF2
0034
000C
0027
0012
0011
FFF0
FFF2
FFE5
FFCD
FFCE
FFF8
000E
0016
FFE7
001B
000B
FFF6
0001
000A
FFF1
0012
0015
0012
FFFA
FFF2
003B
001A
0001
0004
0000
FFF1
FFEF
000E
0015
001A
FFF7
0006
0009
FFE0
000C
0005
000D
FFDA
0012
FFE6
FFE1
FFF9
003F
0003
001C
003E
0021
0013
FFD2
0001
0001
003D
0015
0016
0000
002C
FFED
001E
FFF9
0029
FFFC
000E
002A
0024
FFEC
FFFC
0016
FFDE
002E
FFF5
FFF9
FFFE
004D
FFE7
0039
000B
FFF2
FFFB
000C
0014
FFE5
FFF8
001B
0023
0014
003A
0001
FFF7
FFD0
0002
FFD9
0042
0010
000A
0003
001E
000E
FFFE
0014
0002
FFE3
FFEF
FFEE
FFC2
0028
0021
0016
FFF6
FFF3
FFF2
0010
0019
000F
000A
0029
FFF9
0010
FFF0
0021
FFEB
FFF3
0002
0010
0011
0017
0043
0011
0012
FFCB
FFF4
FFD5
0016
000D
003B
0000
003C
0013
0030
FFF7
FFF0
0004
FFFE
0004
0042
FFEF
001D
0001
FFCA
0029
FFEB
FFDF
FFE2
FFF1
FFE8
001D
0004
FFEB
001A
0007
0011
000D
000C
000E
000C
001D
FFD8
FFE7
FFF6
FFEB
FFFA
002E
0017
0028
0036
0011
0008
FFD2
FFD2
0017
001C
000A
FFF5
001B
0017
FFEC
002F
FFE9
001B
0018
FFF4
0048
0017
FFE0
FFF8
FFFC
FFEC
0038
0019
FFF8
FFF7
0012
FFE4
0003
0005
FFFF
000F
0008
0014
FFDA
FFCE
0021
0024
000C
0028
002A
FFEC
FFF1
FFFC
FFF6
0057
001F
0017
FFF1
0034
FFD4
0015
FFEC
0001
FFC7
FFE2
FFEC
FFCB
FFFD
FFE4
001C
0000
FFEE
0014
0016
0030
0020
0016
0020
0018
FFE8
FFEA
0027
FFFA
0002
FFFE
004F
002F
0020
002D
002E
FFF8
FFCD
0003
FFEE
0017
001F
0023
FFE4
002D
000B
0016
FFFC
0010
0031
0008
0006
001D
FFF7
0044
0004
0018
FFE6
FFCE
0030
001A
FFDC
0043
0010
FFDD
0014
FFD4
0018
FFFB
0001
FFFF
FFE8
FFEE
FFAE
0020
0013
002A
0003
0023
FFAC
FFD7
0019
FFFB
FFDD
FFBA
0027
0038
FFCA
FFF8
0032
FFEF
001B
001B
0028
FFDE
003F
001F
002F
0042
FFC2
FFCF
FFFC
0010
0010
0007
FFEA
002D
FFED
001B
FF72
000C
FFEF
001E
0017
FFFB
0011
0013
0018
0031
FFE9
FFC0
FFCB
FFC9
FFFA
004A
0026
0015
FFFA
FF70
FFF9
FFEA
0009
FFB0
001A
FF9E
0005
0019
001E
0023
FFED
0010
FFCD
001D
0018
FFE4
002F
FFA2
FFF7
FF3C
FFBB
FFF8
0001
0007
FFBF
0041
FFDF
000D
0028
0016
FFE2
0010
FFBF
FFD7
0021
FFD3
001F
001B
0001
FF9C
FFE8
FFE5
001A
FFF6
FFD6
FFEE
002C
000E
FFEC
FFF8
FFEA
0008
0038
FFE9
000D
FF5E
0013
0012
FFA9
FFFD
0001
FFDC
0016
0010
FFE5
0006
002E
FFED
003F
0020
0017
0018
0018
FFEB
FFF7
FFED
0000
0015
0027
002A
FFED
0024
FFDE
002B
FFD1
FFA6
FFDE
0012
000F
FFD7
0017
0004
FFCF
0044
FFCA
0023
0020
0018
0025
FFFB
0013
FFCF
FFE6
FFC1
0047
FFFE
FFFB
FFE8
0029
FFDF
FFDD
FFF9
FFD3
0014
FFD0
0024
FFEA
FFEF
FFED
000A
0014
FFFE
0024
FFFE
001B
FFD1
0026
0022
0005
FFF4
FFA4
004F
FFED
002C
FFD7
000D
FFC2
FFFC
0014
FFFB
001F
FFE9
001A
002C
002B
0042
0069
0018
000F
FFEF
0012
FFF1
0021
FFEE
002D
0009
FFDF
0023
0045
0009
0019
FFE2
003E
001E
0001
FFF0
FFDE
FFFC
FFF4
002D
FFC4
000D
0015
0020
0011
FFF2
0027
0014
FFD7
0011
FFCB
0032
0018
FFA0
002D
0015
FFCA
FFEA
FFF8
0003
000C
000F
FFE5
000B
000D
FFF7
003F
000F
001F
004F
002D
0000
FFF0
0005
0025
0001
000B
0043
0005
000C
FFD2
000C
0006
0008
FFED
0021
001E
FFDA
0019
0027
0009
0052
0005
0012
001D
FFFA
0028
0027
0014
FFD3
FFF1
FFA0
0000
0008
FFF6
FFEB
003B
0055
0008
FFCF
FFDE
0015
FFE1
FFF8
0028
0014
FFE9
0001
0000
0000
0007
0003
000D
FFE3
001D
FFF5
001E
FFF3
FFFA
0007
FFC6
003D
FFBE
FFF7
FFD3
000A
0041
0005
0018
001E
FFF3
0024
0021
0011
0054
0026
000A
FFEE
0015
FFE9
0034
002E
0012
001A
FFDF
0032
000C
0040
FFF9
0004
0023
0006
FFF5
001E
FFF2
000B
0037
001F
FFC2
0009
0011
FFFA
000B
FFE5
FFFD
FFF1
FFD3
0004
FFE1
FFFA
0011
008D
0037
000A
FFF9
0003
FFD9
000E
000F
0014
0044
FFEB
FFE7
000B
FFC2
FFA9
0030
FFE1
0015
0034
FFEA
FFD6
FF9D
FFCE
0019
FFD5
002B
0009
0025
002F
FFE9
FFFF
0056
0005
FFF4
0058
FFD6
FFB2
0014
FFB2
FFEC
000D
FFD0
000C
000E
0008
FFEC
0022
FFFD
007E
0010
FFF5
FFF7
0032
FF99
FF64
0034
001D
0005
FFF7
0030
0027
0005
FFB5
FFFE
002B
0002
003C
0052
0008
FF9D
004B
FFBA
0046
0020
003C
0002
003C
0030
FFF5
0053
001E
0009
FFCE
FFF0
FFD5
000D
FFC5
0003
0003
FFB9
002C
FF8A
FFEA
0027
0012
0015
0022
FFB6
FFD6
0049
FF8F
FFD5
FFA2
FFF6
FFE0
0012
002D
FFB3
0034
FF92
FFEE
0021
0018
FFEE
FFB3
0040
000B
002B
0015
FFC4
FFF4
0000
FFFB
002F
FFE2
FFEA
000B
FFF3
0060
FFFD
FFC7
0075
0020
FFB0
001A
000D
0019
003B
FFB4
002C
FF9B
0014
FFE5
000B
FFC3
FFDF
0031
0022
000B
0005
FFDE
FF88
FFB9
FFE8
0018
001E
0010
0000
0078
FFC6
FFF4
0041
0021
0045
000C
0041
002F
FFF9
FFE9
FFF6
0018
FFF0
0030
0036
0035
FFFD
0034
FFAA
0020
FFF2
0053
FFCB
FFBF
FFD1
002F
0014
FFD2
0039
0029
0029
0039
FFD0
0029
FFD1
FFB9
FFE3
0002
0009
0007
FFD7
FFAC
FFC2
0012
FFFC
FFEB
FFED
FFEF
000D
FFCA
0020
0020
0021
002C
FFCF
000C
0002
0001
FFE3
FFBA
FFD6
002B
FFCB
FFB4
FFE1
0035
FFB7
002B
FFBF
0009
FFF1
0022
FFDA
0029
FFDA
0000
FFEA
FFCA
0031
FFCB
0003
FFAE
FFC8
FFB4
0042
FFD5
FFBF
FFB2
0010
000E
0002
FFF5
FFEB
000E
0067
FFF1
FFFE
FF78
0024
0021
FFE6
000D
001D
FFC0
0027
0010
FFF9
0004
001B
FFEB
001D
001D
FFF7
FFF6
FFBA
FFCD
FFF4
FFF5
FFF7
0026
0008
0028
FFEE
0032
FFD7
000B
0002
FFD8
FFDE
FFEE
0026
FFCC
0005
000F
FFE9
0022
FFCD
0031
0037
0000
FFFE
FFEE
0029
FFCD
FFED
FFED
001A
FFF2
0026
FFE8
0018
FFF6
FFEA
FFED
FFF8
001B
FFB8
0007
000E
0011
FFE4
FFE8
0032
FFC2
0024
0003
003C
FFF0
0011
0006
FFF9
FFB3
0013
0035
0026
001C
FFA7
FFF8
FFF1
0016
0014
FFF8
FFD3
0027
0001
0041
001A
0026
0072
FFA1
000C
FFCF
0025
0022
0008
FFCA
0037
000C
FFE3
0034
0044
FFAF
0010
FFA1
FFFB
004A
001C
0018
FFD0
0006
000E
FFC7
FFC7
FFDC
0016
000C
0004
001A
0019
FFCC
FFBE
FFDE
FFAE
000A
FFED
FFFA
0006
FFF9
FFF0
0001
FFFE
0007
FFE7
0002
000F
0007
FFEB
001D
0008
0015
001F
0006
002C
FFE1
FFF1
FFFB
FFFA
0002
0032
001D
0022
0029
0026
0001
FFE5
0009
0016
0015
FFF2
0000
002D
0016
000D
FFFF
000A
0001
FFF6
001D
0062
0015
FFF7
0002
FFFB
000C
0019
0010
FFFF
FFFC
0012
FFEF
0020
FFF1
FFE0
FFEC
0005
0008
FFDF
FFDE
0018
001A
0005
001D
0041
0009
FFE6
0010
FFF1
003F
002A
002F
0003
0016
FFF7
0009
0008
0013
FFE6
FFFC
0012
FFF4
001D
FFD6
001C
0005
000C
000C
0020
003D
000B
0009
FFFC
0008
0014
FFE6
0005
FFFB
0013
FFF6
001B
0041
002C
0029
0012
000A
FFDF
FFF6
FFEB
0022
0028
0032
0002
002D
000C
001D
FFF5
FFEF
0022
0020
001C
003D
001B
001B
0020
FF9A
0054
001F
FFCD
001D
FFEB
000C
FFEE
0022
FFFE
002F
0019
FFF5
002D
0018
0013
0026
001A
0000
FFF9
0032
0032
0008
0029
0014
FFFE
0011
FFFF
0019
003C
0000
FFF2
0046
0008
0000
000C
0015
0021
0050
0008
001A
0008
0005
0014
004E
FFF4
FFF9
FFEA
FF7A
FFA7
0007
FFDD
FFD0
007A
0043
FFF5
0005
FFED
0008
FFF6
000F
0011
000D
FFC3
001A
FFF9
FFFA
FFDE
0017
FFF6
FFDD
002D
FFD7
000F
000D
000D
FFFB
FFD5
0028
FFED
FFF2
FFC8
FFEA
0031
FFF3
0019
0021
0022
0025
000B
0013
0072
0047
0027
FFE9
0022
FFC7
0046
002B
FFEA
0059
FFE2
0055
0019
0029
FFDD
FFF5
003E
FFDA
FFF6
0018
FFCB
FFEC
003B
0028
FFFA
000B
FFF5
FFF8
0010
FFF7
FFEE
0013
FFCA
000E
0020
FFF5
0009
001B
001A
FFFB
FFDF
FFDD
000B
FFE9
0003
FFF8
001C
001A
FFEA
0005
FFF5
0002
001C
001B
0013
FFF9
000A
FFFF
0014
FFE1
0041
0023
0029
0015
000C
FFFE
0001
FFFC
FFF6
0014
003B
001A
0001
0014
0005
000A
0009
FFFE
0006
FFE9
0065
0038
FFDE
FFFA
0020
000B
FFF6
FFF2
FFFC
FFD8
0026
0014
0044
0023
FFEA
FFFD
0023
001E
FFD3
FFD4
001C
001D
0009
003B
000D
000F
FFDF
0030
0002
0028
0015
002C
0018
0008
000B
FFF9
FFED
0008
FFFD
FFEF
FFF8
FFE1
0013
FFF5
0012
FFF0
FFF3
0000
0010
004F
001D
FFF4
0000
FFEE
000B
FFFF
0006
FFEE
FFF8
0011
FFFF
0062
FFF5
0062
FFF3
FFF6
FFC5
0014
FFD1
0013
0000
001A
FFE7
004F
FFF0
0021
FFFD
0008
FFFB
0031
0029
0037
000F
0027
FFDF
0041
FFC0
0020
005B
0016
FFFA
0024
FFF0
0019
0015
FFFA
0009
FFD1
FFF9
000B
0002
FFF7
FFCC
003D
0028
0009
0006
0025
FFDE
FFCA
FFEB
0012
0014
0010
0031
0048
0026
FFAF
FFFE
001E
0034
0008
0021
FFE8
001E
0003
001A
0001
FF80
FFD5
001B
FFF9
0026
0027
FFDE
001C
0021
0015
FFA2
FFEE
FFF4
003B
0006
0017
003D
FFD3
0014
0036
FFD7
FFE2
FFE0
FFB8
FFBE
0038
0015
FFEC
0019
FFB6
FFC0
000C
0009
FFC8
0013
0000
0001
FFCB
0042
002E
000E
004B
FFE1
0015
0018
FFF2
0022
001A
0001
FFAB
FFD1
FFDA
FFE4
0022
FFC7
0017
FFEB
000A
0025
0011
FFBB
FFF7
FFD1
FFC1
FFF0
FFD6
003F
0000
0031
FFE7
FFD5
FFCE
0034
FFD4
FFE0
0008
002F
000C
000E
0026
FFE8
FFDD
005B
FFC3
FFCE
006B
FFA1
0035
0027
0012
0004
0012
003F
0039
001B
FFFB
FFF8
0013
FFA3
FFCF
FFEA
FFFA
0005
0005
FFFA
FFCC
FFD9
FFF7
FFF3
FFC6
0015
0054
0059
0048
FFED
FFF6
0017
0012
FFD9
0018
FFD4
FFA5
0000
FFF4
FFE9
002B
FFC8
0052
FFFA
FFC9
0003
0004
002B
0080
003D
0011
0012
0005
FF4E
FF3F
0004
FFFD
000F
FFB1
0009
001F
FFE0
FFEB
002C
000D
FFD5
002B
0051
0029
0005
0040
FF76
006D
FFF1
0033
FFF8
0020
003F
FFD9
0000
002F
0023
FFF7
FFA2
FFF0
FFF7
FFF3
0032
FFFE
FFFA
0003
FFBA
FFCC
FFE7
0012
0019
002A
FFAD
FF72
0033
FFA6
003D
FFB1
FFE1
FFB4
0012
0010
0020
002D
FFCA
FFE6
003C
0004
FFF9
FFD9
0036
0005
FFF1
FFF8
FFEF
003B
002C
000E
0028
FFFD
0009
001F
0004
0053
FFD5
0008
0031
0019
FFEC
0047
000B
FFD7
000B
FFC1
0002
FFB3
FFFD
001E
FFC3
FFD3
FFDF
0029
0015
001D
0004
002E
FFBF
0008
FFFA
FFF8
0033
FFA3
0049
004A
FFEA
0001
0013
0019
FFE1
FFFC
0049
FFC2
0049
FFEA
000A
FFEB
FFE6
000D
FFF1
002D
0010
001A
FFC8
001A
FFEB
002A
FFF9
000C
FFF7
0036
0023
FFF4
0025
001A
0007
0023
FFC5
FFE6
FFE5
FFC6
FFD1
0022
0015
001B
0016
FF95
FFEE
0010
002B
FFAC
0014
FFCA
000D
0017
0036
0006
0019
001D
FFF3
0028
0007
FFE6
0024
FFF1
FF96
0026
FF9A
FFD2
FFFA
0008
FFE0
003A
FFE3
002D
001C
FFFA
FFD8
000C
FFE5
0007
FFE5
FFE6
003B
001B
0011
FFE8
FFCF
FFDD
0049
FFEF
FFFF
0011
0008
FFF0
FFFB
FFEF
FFDE
FFED
003A
FFB7
FFEC
0026
002E
000F
0013
0012
FFDB
FFF3
FFC6
FFDC
FFFE
0008
FFFD
000F
FFC9
FFEF
0020
FFFB
FFE9
0023
0018
0009
FFF8
000E
002C
FFE2
0032
0001
000F
FFE0
000F
FFEF
FFCA
001A
001B
003D
0006
FFF4
002B
000A
0010
FFF0
FFE4
FFE0
0033
0006
FFFA
0039
001B
0010
FFF5
FFE8
FF9F
001B
0000
FFF2
0019
001C
0009
FFF4
0037
FFF8
FFDF
0015
0000
FFF6
FFB7
0007
000A
0011
FFB9
0034
FFDE
0006
000D
0029
000E
0019
0032
FFFE
0028
000A
0026
0011
000E
001D
FFDE
0009
FFED
FFF3
FFD2
FFEB
0027
0004
000D
000A
FFEF
0009
FFF1
001D
001B
001A
FFF4
FFFA
0006
0038
FFEB
0027
0003
0016
FFFA
FFD2
FFEE
000E
FFD9
FFE0
0016
0029
FFFB
002E
000D
FFFC
FFF8
0012
0015
0003
FFF4
0014
FFBC
0093
FFA6
000B
003E
0000
FFCF
0009
FFF1
0037
0024
FFE0
0008
FFE9
FFFE
FFF8
0015
FFE2
FFA0
0058
0027
003D
0015
0028
FFEC
FF80
000D
001D
0010
0019
0000
003A
0012
FFF0
001A
000A
0006
FFE6
0020
FFCA
0016
000F
FFE3
000E
FFD3
FFD5
FFF7
001C
003A
004C
FFD2
003A
0006
0032
FF6E
FFCE
FFF7
0039
0016
FFF5
0041
FFF0
000A
0027
001A
FFEB
FFA8
FFDF
FFDE
0034
FFFB
0037
FFD8
0025
000C
0009
0022
FFDB
003C
FFE5
0023
0002
0018
0025
FFD4
0031
FFCF
000C
0002
FFCB
0003
FFD2
FFD5
FFC7
FFC9
FFF5
0007
003A
FF4A
0002
FFFE
0008
0036
0019
FFC1
FFD8
FFE1
0004
FFE9
0013
0011
FFEE
000A
FFCE
FFD0
FF97
0002
FFF8
FFF0
FFE8
0017
002D
FFFA
0014
001B
FFF4
006B
FFF2
0014
FFF9
002C
FFFA
FFF8
FFE1
FFEA
FFFE
001D
0003
0003
0022
0014
001A
0027
0004
001D
0018
0007
FFE4
FFF7
FFDC
FFFE
FFE7
0041
000C
002A
0031
0025
FFFD
FFE6
FFFC
0030
0018
FFF3
FFEF
0015
0008
FFE5
FFFF
FFF6
001A
FFFA
0013
0040
0018
FFD4
FFF0
001B
0009
0020
0001
0002
FFF3
0034
FFF1
0033
FFFE
0004
FFF4
FFEC
0024
FFE6
FFE5
0011
001A
002C
0041
0031
0017
FFE6
001E
FFF7
0054
0028
0023
FFF3
0029
FFEF
FFF6
FFEF
0014
FFCC
FFF6
FFF1
FFE8
0005
FFE2
0012
0016
000D
000A
001D
004A
001E
0004
0013
FFED
FFF5
FFCF
001F
FFDA
FFFF
FFDC
0013
FFFC
002F
0032
0029
0015
FFC7
0005
FFFA
FFFE
0012
0035
FFE2
0032
0005
FFFE
FFF3
001A
0018
0015
002B
0017
0004
003B
0010
FFD3
0018
FFF1
FFDC
FFF7
FFF3
0004
FFF5
0002
FFDE
0022
FFF7
0017
0026
001F
000D
0021
0031
FFE1
FFEE
FFD3
001E
FFDD
007C
0039
001A
0021
FFF7
000A
FFD1
FFE9
0011
0002
0004
0014
000B
0025
FFD6
002B
FFED
0001
0015
FFF5
0083
0013
FFE7
FFF0
FFFC
0011
003E
0008
000E
FFE1
003C
0004
003A
FFFA
FFE9
FFF9
FFF9
0002
FFC6
FFD1
001F
0028
0014
005C
0030
FFFE
FFF3
0021
0011
0067
002D
0022
FFE6
0042
FFE8
002B
FFDB
FFEC
FFC9
FFED
001A
0004
003F
FFE2
000E
0005
000C
0008
0015
0059
004B
001E
FFFD
FFE4
FFF9
0001
FFF5
FFDF
FFF4
FFF3
0020
0052
001F
003F
0022
0007
FFD5
FFED
FFCD
0009
005B
005F
FFE6
0052
FFFC
0015
FFE9
FFE2
0026
0015
0009
0056
0016
004C
FFFC
001E
0022
0019
001C
0038
FFF1
000F
0048
0008
001B
FFF0
FFFB
000D
FFC0
0003
FFFB
FFF2
0039
FFE6
0006
FFCC
FF7D
0021
0022
FFC0
FFFC
001C
0028
0020
FFC9
FFF8
000A
004A
FFFD
0013
FFE6
FFEC
0001
0023
FFC3
0029
FFE0
0030
0039
0043
FFC8
002D
001C
0014
0020
0008
FFCB
0003
0002
FFDC
FFF7
FFFF
0032
FFCD
0004
0068
FFF8
FFD4
001E
002C
000D
004C
0034
FFF6
FFEA
000E
FFCC
004E
0007
FFE7
001D
0047
001B
FFF4
FFF3
0057
000B
0001
FFFC
FFD7
FFD0
005F
0038
0023
FFCF
FFFF
FFBD
0007
001B
002D
0033
0011
0014
FFA8
004B
FFC9
0010
FFC7
000E
FFDC
0009
003C
FFF4
FFFB
FFD3
0025
002C
0009
0005
0012
FFFA
0017
000E
0006
FFE6
004B
FFF0
FFF7
0012
000B
FFD8
0026
FFFF
FFFF
0016
FFF2
FFEA
0008
0009
0002
FFF6
0006
FFF1
0017
000E
0015
0007
0004
0022
FFF8
001B
FFE7
0008
FFE7
FFFD
FFF7
006B
0012
0023
001F
0011
000D
FFFA
FFED
FFF8
0014
0018
0021
001C
000D
FFDA
0007
FFFB
0000
000C
0016
004F
0020
FFF9
FFF0
0002
FFEF
000D
FFFE
0013
FFE5
0044
000D
003F
000D
FFFE
0010
FFF7
0015
FFDC
FFCD
0014
0013
0028
0037
0036
FFF5
FFF2
0034
FFF9
005A
0037
0027
FFE0
0036
000A
FFFC
FFEF
FFF6
FFD2
FFF1
FFED
FFF2
001D
FFF2
0017
FFF1
FFE6
0005
000A
0047
0021
FFFA
001A
FFE0
000B
FFDE
0005
FFFD
0000
0001
0013
004E
0014
003B
000B
FFE8
FFD3
000A
FFE1
001E
0036
002B
FFDE
0030
FFF9
000D
FFE3
FFF1
0020
0013
002C
0049
FFFC
0028
0024
FFEF
003F
0011
FFDD
FFA9
FFFE
FFF0
0012
000F
FFFA
0064
0017
FFF3
003B
001F
FFFF
0039
002B
000C
FFD6
0019
001D
FFD9
002E
0048
FFF8
0014
FFC0
0013
0030
FFEB
FFE8
0025
001E
FFB3
0029
0013
FFE5
0029
0000
0003
002B
FFF1
0026
0013
0019
0003
FFA5
FFB3
0045
FFE9
FFF1
FFF3
002D
0055
FFF0
FF9F
0014
000C
0002
FFF7
002B
000E
0027
FFE6
0003
0026
0006
0023
001C
FFE5
005C
FFD2
0036
000B
FFF0
0023
FFA6
0009
FFC4
000D
FFCD
0010
001B
FFCF
000B
000C
0005
0034
001E
0043
006C
002F
0001
0026
FFF8
0013
000E
0048
0036
0009
000A
FFE6
001F
000C
0005
0015
0034
FFFE
FFCA
004C
FFEC
0013
0030
002F
FFCC
FFD8
FFE2
0000
FFF6
FFF9
000C
0001
0006
FFF1
FFE0
FFF6
FFFE
0011
FFD1
0038
0035
0006
0007
0012
0002
001D
0019
FFF6
001D
FFE4
FFFE
FFFA
0007
FFFA
FFD6
004E
0029
0023
001E
0028
FFB6
FFC7
FFE5
FFF5
0007
0002
0033
0036
000C
FFAF
FFE9
001A
0009
FFFD
0030
FFF9
0019
002B
000B
0016
FF72
FFDF
0043
0018
0006
0021
FFCB
0021
001E
0022
FFA2
FFF6
FFDB
0026
0022
0017
0001
FFE2
0024
0025
FFDD
FFDA
FFE6
FFB5
FFCA
0011
000F
FFF1
0031
FFDD
FFCF
0001
0005
FFE6
001D
001F
000A
FFDB
0040
002F
0011
002C
0006
001B
002B
FFFB
002F
0022
FFF4
FFAB
FFCF
FFF3
FFF2
0039
FF9C
001B
FFFD
FFFF
0026
001C
FFE8
FFDC
0000
FFAD
FFF9
FFFF
004B
000A
003D
FFF0
FFCD
FFC8
0023
FFE3
FFF5
0004
0031
002B
0020
FFFE
0003
FFCA
003B
FFD4
0009
0066
0016
002C
0026
FFC4
004F
FFEB
0019
002D
FFF9
FFFC
0000
FFEA
FFD2
FFEA
FFFC
0033
0048
001D
FFF3
FFEF
0002
FFDC
0029
FFF7
FFB2
FFDF
0027
FFF1
FFEC
FFF3
0052
FFE4
FF5B
002D
FFEB
FFF4
0005
FFBA
FFF0
FFBB
FFCB
0002
FFCF
0023
001D
000F
FFF8
0027
FF63
FFCC
0043
FFD9
0043
FFD0
000A
0026
FFFA
0033
003C
000E
FFF0
FFD4
FFF8
FFDC
0022
000D
FF72
FFBC
FFBC
FFD5
0006
0015
FFB3
FFCE
0000
001B
002C
002F
000A
FFC0
0049
FFBC
FFCE
0008
000B
FFF9
FFE3
FF48
FFD8
0032
0028
0058
003A
FFE1
0001
FFCB
003A
0008
FFD3
001C
FFF4
FFBE
FFCB
FFD8
000B
FFF0
FFEA
FFF6
0012
FFB9
0054
002C
FFEA
FFF7
0025
FFF7
0027
000B
0005
FFF1
0021
0017
0041
FFEB
000A
FFC9
0022
FF9D
000C
FFF0
FFE7
FFE2
0017
001F
FFFE
000B
FFF0
002F
0014
FFE9
0040
0026
0010
002D
FFFB
0011
001E
0022
006C
0015
0001
001B
0007
0018
FFF2
FFF9
0034
0025
FFFA
FFC9
FFEA
FFE8
0022
0009
0018
001E
0000
0007
0011
002A
FFE1
FFDC
0049
FFCD
FFDC
FFDB
FFFA
0016
0042
FFFB
FFFD
0019
FFE7
FFF6
000A
0033
FFF2
FFEA
002B
000F
FFD3
FFDF
0021
FFE0
000B
0006
003F
FFDD
0054
FFDA
000A
FFE2
001D
FFE5
FFE3
0024
FFB3
FFDB
FFFB
0018
0010
005B
0005
FFF8
FFFC
001B
005E
000E
00CB
0006
FFFC
0008
FFF0
FFFE
0019
0034
FFCA
FFEB
0018
002B
0021
0010
0012
FFD2
0070
0006
0034
002C
0002
0017
004B
0018
FFD1
0008
FFEB
FFFE
0035
000B
0016
0016
FFE0
0005
0015
0011
0005
009E
FFCE
0007
FFF0
FFF9
0034
0009
FFFA
000D
002F
000D
000E
FFFE
0028
FFD9
0024
0010
0021
FFF8
FFF9
FFEC
001B
FFF2
FFC9
FFF0
0009
0003
0030
0016
FFE7
002F
002D
000C
FFFC
002C
0004
FFF7
004E
002D
FFF3
FFD3
FFB3
FFD1
FFC2
0042
0036
FFF1
0016
000C
FFC3
FFF2
0001
0040
003A
FFBF
FFF2
0007
FFE8
000D
0022
FFE1
FFEE
FFFC
FFC7
0003
FFF9
FFB8
FF99
FFAF
FFDD
0006
0023
0010
FFA9
FFF1
FFFB
0000
0040
0046
0014
FFEE
FFF2
0004
FFFB
0026
FFFF
0015
FFFB
FFC1
FFE8
0040
FFEE
0041
000A
FFE2
0000
0008
0018
FFFA
FFD9
0021
FFD9
FFDD
FFF9
FFED
FFFE
FFE5
FFE1
FFD4
FFFA
FF84
0013
002E
FFC0
FFE5
0027
FFFC
0025
FFF8
FFF3
FFF4
001E
000E
002D
FFE3
001C
FFC5
0020
FF25
002D
FFF5
FF94
000E
0020
FFBF
0022
0027
FFC1
004C
0016
0011
002F
FFFF
002C
0048
FFF5
FFC0
FFD6
FFDF
0012
0018
0041
003D
FFFA
0015
FFBD
0007
FFF3
FF76
FFF2
0007
002E
FFA8
0012
0014
FFF5
0055
FFB2
000A
0027
001E
0037
0016
0027
FFD8
FFE7
FFBB
0008
FFF1
FFEE
FFBC
0021
FFD1
000B
FFF9
FFD3
0000
FFD9
0020
0010
FFEA
0006
000F
0038
0021
0018
0007
0005
FFE5
001A
0009
004A
FFE4
FFD8
0007
FFDE
0042
FFEA
0001
FFDB
000F
002E
FFCE
000B
FFEE
FFFE
001A
0001
001F
006D
003D
0024
FFD1
0017
FFCD
0029
FFF0
0002
001C
FFEE
0043
004D
0047
0019
FFEE
003E
FFAE
000E
000B
FFB2
FFFF
001B
0038
FFAD
002E
FFF7
0013
000D
FFF6
001B
FFFA
FFEC
002F
FFCF
0032
FFE4
0008
0001
FFFD
FFF9
001B
001B
001E
0016
FFD6
002C
0012
FFD4
0019
FFC8
FFD8
FFFE
FFF6
FFFB
FFED
FFD3
FFE0
FFCD
0008
FFE9
0039
FFE7
0008
0044
FFF0
001F
000D
0005
0034
0018
0039
FFCE
FFD3
001E
FFFD
FFDD
FFDD
FFF1
000C
001F
0018
FFD9
001E
0012
004E
FFEF
FFDE
FFF7
FFF9
0001
FFCB
0013
0016
FFEC
FFAF
FFE2
001D
FFAF
FFE3
0027
FFF9
0001
0039
0024
0017
001F
0021
FFA6
0013
FFFA
0034
0026
FFFE
001E
FFCF
002D
0034
0013
FFBE
FFCB
0022
FFEA
FFF7
0013
001E
FFDE
FFCE
FFE6
FFD5
FFF6
0007
FFD8
001C
FFCD
FFD1
0008
0008
FFDE
FFBD
FFDD
001F
0011
0048
FFD9
000F
FFD8
0005
0038
FFD7
FFEB
FFD4
0037
FFEA
FFD9
FFD6
FFBE
FFF0
000A
FFEA
001C
FFE7
FFFD
0004
FFFF
FFA9
0068
000E
FFD8
FFE9
0002
000A
FFE8
FFE5
000B
0031
000E
FFF4
0032
0021
002A
003D
0033
FFF9
FFE7
FFFB
0011
000C
0038
0038
0032
FFFB
FFF8
FFEE
0035
FFED
FFE3
001E
005B
FFFC
0015
0014
0036
000C
0044
0004
0019
FFF0
006C
0034
0000
FFC7
FFED
FFD5
0001
0012
0004
FFCA
0051
004C
0041
0001
0004
0003
FFF7
FFFB
0000
FFD7
FFF8
001A
0003
0019
FFFD
0029
FFFB
0009
0033
FFEA
0023
0022
0006
FFE7
FFE1
001B
0001
FFFD
FFBA
0004
0024
0029
0039
FFFD
FFF3
FFF8
002E
FFF8
002D
004C
0048
FFE8
FFE9
FFCA
001A
0026
FFED
001C
0013
0043
FFF3
00E5
FFEC
006E
FFFF
FF9C
FFF3
0018
FFD8
FFE8
0039
0024
FFF7
0050
FFF9
0021
FFF7
FFF0
FFEA
002B
0008
0043
FFF8
000D
0017
FFB6
002D
001A
FFC0
0000
0003
FFD8
000D
FFFC
FFD7
001F
001F
002B
001D
000C
002A
000B
0023
FFD8
FFEE
FFF0
000B
FFD7
0048
0005
0010
001E
0005
0013
FFD1
FFDB
0007
0015
0012
0001
FFFC
000C
FFC7
002E
FFF4
0013
0003
FFE0
005F
0020
FFDA
FFFD
0011
FFE6
002D
FFEE
FFF2
FFFC
0022
0003
0037
FFEB
FFDC
FFFE
FFE5
000A
FFFB
FFE9
0009
0018
0011
0033
0017
0003
FFE8
FFF9
000E
0018
000A
0036
FFCE
0034
FFF7
0013
FFEA
0003
FFD5
0007
0008
FFE0
001A
0007
FFFE
0021
000C
0012
000B
0044
0025
FFEE
000D
FFEA
001E
FFED
FFF7
FFF2
FFF2
0021
0032
003C
0025
0026
000B
FFDF
FFD1
FFF8
FFE4
0012
0024
004A
FFEE
002B
FFF2
002A
FFE9
FFED
0005
001B
FFFB
0038
FFFF
0034
001C
FFD3
0071
0008
FFD9
FFF8
FFF2
FFF4
FFE4
0031
FFF3
0028
0004
FFFD
0047
FFEB
0015
003D
0015
0013
FFE5
0018
001A
FFF9
0040
002F
003E
0019
0048
000B
0056
FFFB
FFD9
002E
0007
FFD9
002C
0016
004D
0037
0047
0013
001B
001E
FFF4
0047
0018
FFF0
FFFB
FFD5
FF89
001D
FFFE
FFC3
0066
004C
001A
0022
FFDF
FFFC
FFFB
0019
FFFB
FFE5
FFDD
000C
FFF9
0013
FFF7
0005
0015
FFF4
0026
FFE3
0030
0015
FFF5
FFCE
FFDC
0019
0001
FFC5
FFD4
FFE2
003F
003E
0026
FFFD
0009
FFF8
0029
FFFC
0087
004A
002D
FFB5
FFE6
FFB8
0010
004B
FFDB
004A
FFC3
000F
0007
003C
FFDE
FFE7
005F
FFB9
0005
FFF8
FFF1
0007
004A
003B
FFFB
0038
FFE5
0028
0010
0000
0012
000F
FFCD
0031
0012
FFEF
0018
FFBC
0063
0015
FFDB
FFE7
FFED
FFEF
FFFC
FFDA
FFFB
0030
0004
000C
0034
000F
000D
004F
0038
FFE9
FFF0
001B
0023
FFFA
005B
004E
002A
FFF4
FFFE
FFFD
000C
FFCF
FFF6
0046
003C
FFE8
0015
0017
0013
002D
002A
000F
001F
000F
0081
0037
000C
FFDF
FFE5
FFC8
0009
000B
FFED
FFD4
007A
0058
001E
FFF3
000C
001D
0014
001C
FFE1
FFFE
0015
0001
0013
0035
FFF5
0010
FFF7
001C
001E
0012
0018
0005
0023
0008
FFC8
000F
0007
000D
FFC2
0012
002E
FFE9
000E
FFF9
0006
FFF0
000F
FFF9
FFF6
0054
0035
FFEE
FFF1
FFB3
0046
0036
FFF8
0012
0002
0017
0003
009B
FFDB
007F
0002
FFCE
FFF6
0007
FFC2
0000
003A
003D
FFDB
0050
FFF2
0010
001D
FFE6
FFF6
0018
0000
0033
FFF5
0007
0010
FFD9
001E
0004
FFDB
FFE0
0018
0000
FFE1
FFF9
000B
001D
0003
002C
0019
0013
0002
000D
0025
FFD2
FFF1
FFEF
000D
FFF0
0069
002C
0036
000F
001D
FFF1
0015
FFF7
FFF9
0014
FFFA
FFFA
0020
0006
FFEB
0014
FFF9
0018
FFF8
0012
0033
001F
FFE5
FFF8
0000
0009
0021
001B
FFEC
FFD5
0033
0026
003B
FFF8
FFEC
0019
FFE3
0015
FFE0
FFE0
0022
FFF2
000B
003A
003B
0002
FFE9
0023
0022
0015
0032
001F
000E
002A
FFDB
0013
FFE9
FFE4
FFCD
FFF6
0019
000C
0016
FFF9
000B
FFEB
000F
0018
002A
005A
0032
000E
FFF3
FFDD
0008
FFF9
FFFC
0000
0003
001D
0014
0043
0006
001D
001D
FFEC
FFF4
FFFA
FFC2
0017
0053
0022
FFE9
0037
FFD9
0025
0009
FFEB
000A
0007
0001
0047
FFFE
0038
001D
FFDA
0006
FFF3
FFE5
FFF4
0016
FFC8
FFFB
000D
FFF6
0021
0002
0000
002D
0008
0004
0004
0014
FFE0
FFEE
FFFE
0019
FFD3
005D
001B
0018
0034
FFEA
0033
FFCD
FFE8
FFFE
0005
0026
FFDC
0006
FFFF
FFDC
003F
FFF3
0021
0010
0009
0048
0012
0014
FFE1
FFF8
0015
0048
000F
0015
FFE4
0011
0001
0020
FFC3
0004
0014
FFEE
FFFD
FFEB
FFEC
002A
0017
FFF3
0046
0035
FFDF
000A
0010
0008
005E
0012
003A
FFD8
0049
FFD7
0011
FFDA
001D
FFEA
FFED
FFDC
FFCC
001C
FFEB
0011
0024
000B
002A
0015
0027
0019
0016
0021
001A
FFEE
FFDD
001F
FFF0
FFE0
FFF9
0046
0021
0023
0010
000F
0017
FFC8
FFE8
FFEF
000D
0039
0048
FFD5
0011
0001
001B
FFF1
FFF1
0015
0017
0003
0024
FFE8
0005
000E
FFF9
0050
0016
FFCE
FFE1
FFC9
FFE7
0024
FFD6
FFCB
0013
0001
FFE0
0031
003D
FFE8
0033
002C
FFB6
FFBA
FFF0
0024
FFFD
FFE4
0018
FFDB
FFE1
FFC1
FFE1
003D
FF84
FFAE
0075
001F
FFB1
FFC3
002B
FFEF
0011
FFE7
0001
0017
FFCD
0058
0018
FFCA
0024
FFE7
FFD1
FFFA
FFD8
FFF9
FFD2
00A0
006E
FFAF
FFCA
0021
003A
0018
0023
0023
FFB5
FFE6
0000
001D
0009
FFE3
FFFD
FFED
0019
0047
FFBC
000F
FFBF
0019
FFEC
FFE8
FFEE
FF92
002A
FFD7
0027
0028
0000
FFD7
0030
001A
FFF7
0017
0024
FFFE
00AA
005D
0009
FFF2
FF91
0064
003E
0027
0011
FFF0
000B
000C
0024
FFC4
002B
FFD0
0030
FFF1
004B
FFC0
0005
FFFB
FFE9
FFC5
FFAD
FFD3
000B
FFEF
0021
0004
FFEC
001E
FFDA
FFB5
FFEE
0021
FF86
0047
FFF3
FFE9
0003
0022
FFD1
0025
0010
FFBD
003D
0023
0004
0032
0012
0004
002B
FFEC
FFEB
0014
FFF1
0020
000A
0008
000D
FFDB
0038
FFE9
0025
0008
FFA8
0002
FFCA
0002
FFE4
0009
000E
FFED
0039
FFE2
0015
0027
0029
FFE3
FFFF
0023
FFBC
FFD3
FFC2
006D
0001
0026
FFDA
0023
000F
FFC4
FFB6
FFBF
0018
FFD7
001E
002D
0023
002B
001E
0039
FFEC
001E
0032
0049
FFBD
003A
000B
0011
FFFD
FFD6
0004
FFC6
0025
FFA0
FFEC
FFF5
FFCB
0022
FFF8
0006
FFE0
001C
0079
0032
0041
00AE
FFD2
FFEF
FFEE
0023
FFFF
003B
0001
001D
FFF4
FFE7
0005
0031
0011
0004
FFB1
0049
0009
0005
0010
FFDA
0005
0013
004E
FFAD
0007
0019
FFFF
003E
0031
0040
FFE9
FFF7
0004
FFC8
002F
000F
FFB3
0034
FFFE
FFDB
FFEE
FFFC
FFDF
0009
000B
FFE4
0006
FFFF
001E
0029
0007
0009
FFF8
0020
FFE0
FFF2
FFF8
0017
FFE8
001A
0036
FFF3
001C
FFF9
0024
FFFA
FFE5
FFE0
002E
001C
FFED
0009
000E
FFD6
003B
FFE9
001C
0005
FFF8
0046
0011
FFF8
FFF5
FFDC
FFBA
0022
FFF4
0001
FFF6
001C
003A
FFF6
FFDC
FFFA
0018
FFDB
0019
FFFD
FFFD
FFFC
0015
000E
001D
001E
FFF1
FFED
0010
0041
FFED
0009
FFEC
FFE4
0034
FFB9
003A
FFD1
001C
FFC5
FFFB
0034
FFDB
000F
FFFF
001A
0019
000A
FFFA
0031
0031
0007
0018
001F
FFF5
0014
000C
0000
FFFD
FFF0
0013
0020
0030
001B
0020
0027
0015
FFEE
0019
FFFB
FFF8
002D
0034
FFEA
0015
0014
FFF4
0009
FFF2
FFFF
000C
FFE6
0015
FFD0
0023
FFAC
0004
FFEC
FFE3
FFE3
0037
FFE6
001C
002C
0025
0015
FFF2
0014
0001
0004
FFF9
FFDB
FFB5
FFBD
FFD8
0029
FF93
FFCC
001A
FFBA
FFB9
FFC5
0051
003D
0038
001E
FFFA
0017
FFED
FFC0
0000
FFD7
FF80
FFDB
000F
FFB2
0041
FFF4
0031
FF9A
FFFC
FFE0
0002
001D
00D5
0018
0034
0021
002E
FF66
FFD6
FFFA
FFE0
0014
FF42
FFD8
0033
001C
FFE4
0005
FFE7
FF8F
0000
0050
0028
0010
0002
0001
0045
FFD6
0032
FFE9
0027
0032
FF6E
0041
0043
0012
0012
0000
0009
0004
FFEB
001C
004A
0042
FFC9
FFD3
FE88
FF60
001D
0008
004D
FF7D
FFEA
003B
FFB2
0036
FFC5
FFF9
FEBD
001F
FFBE
001F
0041
FFF1
0026
0058
FF93
FFE1
FFD7
0053
FF88
FFB1
FF92
FFE4
0020
0004
FFDF
0014
FFB2
000A
0020
FFFB
0023
FFC3
0023
FF9C
0026
0012
0010
FFDE
FFA7
FFDB
FFF3
FFDE
FFBC
0024
FFDE
FFC4
FFBA
002D
FFDE
000B
0002
0023
0023
FFF3
003A
001D
FFE2
FFC5
0023
FFD7
FFE4
FFED
FFBD
FFE2
FFEB
FFE4
0034
FF8D
000F
FFB5
0001
0008
006B
FFB6
FFDD
FFA0
0045
FFED
FFA9
FFBF
FFF6
0006
FFAC
FFB2
FFCC
000E
0005
FFA6
000E
0068
0044
FFEE
FFBC
0014
0001
0001
FFF3
FFB1
0002
FFD9
FF9A
FFC8
0045
002E
004B
FFB6
FFFD
FFF1
0005
0043
FFDC
FFDF
000E
FFF6
FF83
FFF3
FFB9
FFB8
0004
FFEA
FFD6
002A
FFDE
FFC1
0029
000F
FFCB
0029
0035
000E
0034
FFD3
001D
003D
0039
FFEF
FFF4
002C
0010
FFFA
002D
FFE3
0001
000E
007F
FFFE
0015
001F
0031
0038
FFE9
FFF0
FFBD
FFE1
0035
FFB5
FF89
000F
FF8D
0027
FFEF
FFE3
FFFE
FFFF
FFE7
001F
001E
FFE8
0027
0033
FFFF
0035
0023
000A
0020
0009
FFD3
FFFD
FFF8
0005
FFFF
000A
002E
0008
0010
FFDA
0008
FFF5
FFAE
FFCA
000A
FFFF
FFBC
0032
0016
FFE4
0036
FFEC
001B
0000
0009
0018
0004
001F
FFA0
FFD9
FFDC
0039
000B
0021
FFBC
0045
004E
FFE3
FFDC
FFED
0020
FFF0
0003
FFFC
0007
000C
000B
0020
000F
001C
0005
0023
FFFC
003C
000D
0012
0000
FFFC
FFFB
FFE2
0036
FFCF
FFF9
FFBF
FFF5
002D
0006
FFFE
FFE4
0024
0028
0030
0030
0074
0024
000F
FFDF
0012
FFE9
0028
0010
FFF7
0000
FFE6
000C
0029
0032
FFFE
FFE6
0046
FFF4
0014
FFF8
FFD6
0007
0036
001D
FFCE
000E
FFF0
000E
0021
FFFE
000C
0009
FFF7
0005
FFCB
0004
0002
FFD7
001D
FFF8
0014
0003
0017
0002
0005
0003
FFE6
0008
FFF3
FFE3
002A
0023
000E
0047
0028
0007
0017
FFFB
003A
000D
0015
0039
001D
000D
0005
FFEC
005D
000D
FFFD
FFED
0021
001D
0028
FFFF
0031
0017
0036
0008
0006
FFFA
0027
000E
0010
FFF0
FFFC
FFF5
FFC5
0000
0001
FFF3
0026
002C
0017
003B
FFF7
0018
FFFF
0014
001A
000E
FFC6
0004
0015
FFE4
FFDD
0008
FFE8
0003
003D
FFCA
000C
001A
001C
FFC4
FFE2
0022
0006
FFC3
0009
0013
002B
005E
002D
0006
FFE3
FFE4
0037
FFFB
0046
0033
0026
FFEA
FFF4
FFEE
002D
0042
FFD8
0023
0001
002D
FFF3
0040
FFF5
0004
002E
FFCD
0029
001C
FFE3
0010
0030
FFF5
0024
0018
FFE0
FFF7
FFFF
FFF7
FFF8
001A
FFDD
001D
0048
FFE1
0034
FFC5
0011
002A
0025
FFFC
000C
001C
FFE3
FFE8
FFFB
FFFF
0009
FFF2
FFF0
0023
000D
001D
000C
0021
0010
003C
004C
0003
FFE9
002D
FFF2
FFD8
000A
FFF5
0058
001C
FFE8
000F
001A
0012
0014
0020
000B
FFFD
001F
0007
0017
FFFD
0003
0030
0020
FFF7
FFEB
FFE5
FFA5
FFFA
0024
0008
FFF7
0034
000C
0016
000D
003B
001A
FFF7
002D
0029
FFD7
001E
0004
FFC8
FFD3
000F
000B
FFD1
0054
FFBE
FFE6
FFE8
002B
FFDD
0011
0025
0019
FFDF
0019
001C
0032
0017
0005
002B
FFEC
FFDF
0031
FFFB
002B
001B
0007
FFF6
0003
000D
0056
0054
FFCC
001D
0016
0024
0006
0017
FFCB
FFED
FFFF
FFF1
001C
0021
FFF5
0003
000A
FFEE
0004
FFF8
FFFF
FFF6
0018
FFF5
FFF0
0008
FFE9
FFF5
003B
FFF9
FFF5
FF3D
FFF8
0008
0023
001C
FFFD
FFF9
0016
0014
FFF1
FFA1
0021
FF4A
FFD0
FFD9
002C
FFD4
0000
0025
002A
003B
0016
0026
FF9D
0010
FF3C
001E
000E
0027
FF9D
000E
FFFE
FFEB
FFBD
FFC0
FFC6
FFE5
FFE9
0004
FF78
0029
FFC9
FFE9
FE53
000E
001D
0037
FFF9
003B
0017
FFFE
0021
0004
FEBC
FFF7
FF98
FFF7
000F
002F
0002
FFC0
0018
0011
0017
000F
FFCB
FFC3
000B
FFB4
001C
0013
FFE6
0033
FF9F
FFD3
FFE0
FFFF
0048
0042
FFF3
0017
0033
0010
0019
0016
0004
004F
0014
001A
0013
FFF3
FFF1
FE20
FFC5
0028
0007
FFF2
FF0E
000B
FFFD
FFE1
FFF8
0002
0010
FEAE
0002
FE60
FFE0
FFF8
FFF5
FFE4
000D
0037
FFC3
FF37
0015
FFD3
0058
FFFF
001C
0018
FFF9
FF9B
000E
FFE6
0031
0021
FFFE
0006
000E
FFF7
FFF9
0002
0002
000A
FFEF
FFF1
FFEF
0013
FFFD
FFF2
0005
FFEB
FFEE
FFF4
FFFA
FFFA
000A
FFEF
FFFB
0006
FFEB
FFF6
FFEB
0010
000A
FFE5
0005
FFE7
0000
0001
FFF1
FFF8
000C
FFEB
FFE8
FFF6
0006
FFE8
000D
000C
FFEE
FFE6
0009
0010
0004
FFE6
FFEF
FFED
FFF5
0011
0000
FFF4
FFF8
000D
000B
FFF7
FFF4
000B
0009
FFF1
0012
0011
FFFA
0005
FFE9
FFEA
FFE9
FFEB
000B
FFEC
FFE5
FFF1
FFF9
000D
000B
000A
FFE9
0007
FFEE
0004
FFF1
FFFA
0009
000E
0002
FFEA
FFFB
FFE9
FFE9
0005
FFE7
FFFB
000D
FFEA
FFFF
FFF9
FFF6
0011
0007
FFE7
FFFF
FFF4
0003
FFF0
000F
FFFD
FFE9
FFE6
FFF6
000C
FFEF
FFED
000B
FFED
000E
FFF0
0006
FFFC
FFFA
FFF6
FFE6
FFF3
FFF2
000A
FFE6
002A
FFF8
FFF8
0018
003B
FFE6
001F
0018
FFED
001D
000E
FFC9
FFFE
FFD2
FFD0
002E
FFFB
000E
0002
0015
FFE1
FFA2
FFEF
001B
FFCB
0031
0010
0026
0000
FFC1
0019
0028
002B
FFEC
000B
FFED
FFDF
0012
0001
FFF4
0000
FFE9
0019
0036
0015
0006
000C
003F
0017
0025
0021
FFE1
FFFA
FFC9
FF7A
002D
0002
0015
FFCA
000C
000F
FFEC
FFF9
001C
002A
000E
0037
002D
0019
FFC1
0027
FFBB
0059
000D
001D
0004
0016
0032
FFFF
0011
001B
0015
FFE9
FFDB
FFEF
0011
FFE3
000D
0008
FF9F
001A
FFE8
0009
001A
0010
FFFC
0021
FFB4
FF9C
0015
FFCE
FFEB
FFCD
0002
FFF1
0026
0024
FFE9
FFE7
FFDC
FFC2
0006
001E
FFFA
0018
FFFE
0026
0013
0016
FFE5
0030
0001
0019
000F
0010
000B
0023
FFF7
000D
FFE7
0007
004A
000A
0010
0038
0009
002E
FFFA
0002
0022
FFE1
0002
0015
0009
0012
FFFE
0053
001E
0010
002C
001C
FFC8
FFC7
FFFC
FFF2
0018
0004
0037
003F
0008
FFAF
0001
0024
0015
FFF9
0014
FFDD
0030
0010
001C
0023
FF8D
FFE1
0036
FFEE
0010
001F
FFD4
001D
003D
001F
FFB5
FFF0
FFF7
001C
FFF4
0037
0030
FFD1
000D
0031
FFDA
FFD5
FFF7
FFBC
FFD7
001F
001E
FFE6
002F
FFA8
FFCE
0003
001B
FFAF
000F
000C
0020
FFEE
002D
001A
FFF7
0051
000D
FFF2
000D
FFEC
001F
0011
0018
FFBD
FFDA
FFD2
FFDB
0042
FFBC
001C
FFC2
001F
0035
0026
FFC9
FFF7
FFF3
FFB8
0000
000C
004A
0029
0019
FFFC
FFE6
FFB9
0034
FFE0
FFF9
000F
001B
0019
000C
0015
FFF9
FFF2
005D
0001
FFEE
005E
FFC6
FFF8
002C
0015
FFE4
000B
0015
FFE5
001A
0005
FFF7
FFF2
FFEB
FFE7
FFED
000C
FFE3
0025
000F
0025
FFEE
001E
FFE4
FFF4
0010
0006
0015
FFF4
001E
000B
FFE1
FFFF
0030
002E
000F
000F
FFFC
FFEB
0016
FFF4
0004
0003
0010
FFEB
FFE0
002B
000E
0015
000C
FFF3
FFDC
0012
FFD9
FFF7
0011
0002
000A
FFFB
003D
000F
0014
0025
0021
FFD4
FFE1
FFE9
FFF7
0010
0000
0034
FFF7
FFEA
FFD5
0024
FFFF
000B
0023
FFD5
0032
000D
0034
0026
FFCB
FFF5
FFD5
0002
0002
FFEE
FFE7
FFE6
FFF4
0021
FFFB
0014
000D
0027
0002
002E
0025
0022
FFFF
FFE1
FFFB
0012
FFF7
001D
FFFF
FFFC
0001
000D
FFFE
FFDE
FFAE
FFE5
001C
0008
0008
0000
0003
0000
0009
0019
FFE1
FFF3
0020
0006
FFF4
0049
FFF6
FFCF
001B
0034
FFCB
FFED
FFFC
001D
0020
FFFD
FFE3
001A
0018
FFD5
0025
FFFF
FFB0
0024
0026
0031
0019
FFDF
0003
FFF0
0024
FFFB
0019
0006
0025
0020
FFFF
0015
001E
0028
0004
FFD9
0027
001D
FFF0
FFE9
FFF5
0036
FFA7
000B
0023
0010
0001
000F
002F
FFF9
FFF6
0015
FFF4
FF68
FFFB
0004
0009
FFD5
0004
FFE7
0003
0015
0006
001D
FFB5
FFF9
001F
0021
001D
0020
FFC0
001E
000B
0030
002B
001A
0023
0003
002D
FFCD
000B
0008
000F
003E
FFD5
FFC1
FFED
002D
FFF9
FFE8
0034
FFC8
FFF2
001C
FFCD
001A
FFD0
FFD4
0030
0009
FFE2
0003
0000
FFE4
0021
FFB5
0023
0027
FFF2
FFA4
FFF0
FFCD
FFF3
FFCA
0012
FFFD
0014
0016
FFF8
FFFB
0006
FFE9
FFFA
0003
0002
001A
FFD7
0077
FFD0
0005
0030
001B
FFF3
FFFF
FFDF
FFDA
FFFE
FFFD
FFDE
0008
FFF6
FFEE
002A
0013
FFE4
0030
001C
0024
FFF9
FFFF
FFF4
FFE5
0030
FFDB
0018
FFDA
0030
0036
FFE7
FFFA
0023
0034
0020
0004
0025
FFFB
0038
FFF9
0010
FFEF
FFF2
FFF1
0000
002C
000B
0032
FFEB
0015
FFE2
0012
FFCB
FFEA
001E
0023
0010
FFDD
0040
FFD8
001D
0012
FFF1
FFED
FFB7
FFE3
0005
0022
FFE2
0013
FFEF
FFC7
FFD8
0019
001A
FFE5
0001
FFC8
0034
FFEA
0036
001E
000C
002D
FFCE
000A
FFD8
FFF1
FFE2
FFD2
FFC0
FFF9
0017
FFFE
FFEC
000C
FFBA
002E
FFE5
0025
000A
0003
FFC5
002D
FFF9
001E
FFFB
0002
001D
0008
000E
FFF9
FFE0
FFC5
0028
001A
FFEA
0001
001F
0007
FFDE
0020
FFE6
000D
0038
FFFC
003A
FF73
0063
0003
FFCB
000E
FFF7
FFC4
0013
000B
FFF8
0041
0015
000A
003D
0008
0011
002C
0021
FFBC
FFCF
0013
0007
FFFA
0025
005D
0008
0012
FFE3
001B
FFE7
FF7D
FFCA
005F
0013
FFAE
0010
003C
FFF5
0045
FFEC
0007
0025
000B
0057
004A
FFFF
FFA7
FFF3
FFB7
0011
FFFC
000D
FFA3
00AE
0063
001D
FFCF
FFE1
0005
FFF6
000D
001D
0007
0007
0033
0024
000D
0008
FFFA
FFF1
FFF1
0044
0000
0031
0008
FFE0
FFFB
FFE8
0027
FFC4
0011
FFD4
FFFD
004B
FFE4
0001
000C
000E
002C
0023
000F
006B
004C
002A
FFF5
000B
FFC8
008A
002A
FFDC
0031
FFC8
0030
0037
0028
FFD5
FFF6
001B
FFD2
FFDF
FFFF
FFC3
000F
003C
0072
FFDF
0046
FFF8
002A
0026
FFFC
FFE9
0012
FFC4
002E
FFB7
0018
FFD9
00A4
0038
002A
0033
000F
0000
0003
000C
FF94
0009
0022
FFD6
FFF4
FFE0
0021
0019
FFFD
0032
001B
0017
0030
0020
0024
0043
000C
0055
0002
0028
FFE2
0031
001C
FFF8
007F
0048
0034
0018
0012
0045
FFEC
0054
FFEE
FFED
FFE9
00B4
006F
FFCB
003D
0031
0014
000B
001D
000C
0010
002E
004C
002F
0025
0033
0014
0047
0011
FFCA
0013
0016
0017
FFCA
004C
FFE1
0029
FFDB
0029
FFCA
0037
0004
002D
0054
FFDA
001E
FFDF
004E
0016
FFFF
0023
FFDC
FFE9
0041
0014
FFDE
FFB9
FFF3
FFB1
FFA4
0031
0001
FFF3
FFF0
FFF3
0019
0034
001F
001D
006D
0018
FFE1
0096
FFBE
00AF
FFC2
FFF2
FFD3
000B
0005
000A
FFF1
0006
0035
0014
001B
0019
0016
FFF0
FFD6
0001
0022
0026
0054
FFE0
0011
FF75
002B
FFED
FFD9
FFFB
000D
FFEB
FFF8
000E
FFD6
0018
0016
FFF0
0039
0017
000F
0035
0016
FFD0
FFE8
000C
001C
FFED
0039
0035
001A
0001
FFE4
0003
FFF6
FFC4
FFD7
001D
001A
FFC6
0027
0024
FFD4
003E
FFE3
0008
0022
FFEE
0026
0030
0015
FFD5
FFDB
FFC0
0027
FFFF
0013
FFBF
0040
001A
FFFC
FFDF
FFEC
0024
FFE9
0006
FFE3
000D
0005
0010
0020
0022
0026
0008
0016
FFF2
003F
FFF7
0040
FFEF
FFE6
FFFF
FFC0
001D
FFB9
000B
FFB3
0010
0009
FFDF
0011
000C
FFFA
0053
0015
000C
0045
0019
001C
FFF0
001B
0003
001F
FFF5
0020
0007
FFF1
0029
0027
001A
0013
0011
001B
000E
FFDF
0020
FFCA
0013
003F
0039
FFE1
002A
0002
FFFA
0011
FFEB
0019
000B
FFEB
0022
FFB5
0000
FFF7
0053
FFEA
FFEA
0004
FFFF
FFED
0012
FFE7
FFD8
0016
FFF8
FFF7
FFFB
FFE4
FFEE
0021
0009
0006
0024
FFFE
0028
FFE6
FFF2
0009
FFF3
0006
FFF8
001A
FFF3
002F
0018
FFE5
0005
0044
0026
0017
FFE8
001C
FFF0
0022
FFD9
FFFC
FFF2
0001
FFC7
0019
0027
0016
0026
0010
0000
FFC7
0020
0001
FFF3
0015
001C
0012
FFEE
002A
FFED
FFFC
0000
002A
FFDE
FFE3
0009
FFE7
000C
000D
0018
FFE0
FFDE
FFD6
002E
FFFC
FFEE
FFFF
FFE3
002F
FFFC
0025
FFEE
FFE4
0014
FFF7
0013
FFE7
0017
FFF3
FFE4
0002
0006
001E
FFF3
FFE3
001F
FFE2
0020
000A
002C
FFF7
FFFD
000E
002B
FFEC
0021
FFF1
000E
0013
FFF3
FFF1
FFE9
FFCE
0002
0015
001D
0008
0011
FFDD
000B
FFDF
FFF3
0013
0011
0012
0014
0020
0054
FFDF
0008
0031
0010
0003
FFF5
FFF1
FFFB
0023
001B
0007
FFFF
0012
0007
003A
0012
FFD7
0041
000A
0014
000D
FFDA
0015
FFCF
002E
FFFC
0023
FFFC
000C
0030
0017
001A
0015
0057
002A
000E
003C
0008
FFF6
FFE1
0014
FFFE
FFFF
0046
0027
0021
FFF8
004C
FFCD
FFF4
FFD1
0006
0010
FFD3
FFF7
0022
0003
0018
003F
FFD3
000B
0001
FFDB
0027
FFEB
FFE6
0006
FFFD
FFED
0023
FFD2
001C
FFF4
0027
0019
000E
001F
FFEA
002F
FFBE
0023
0010
FFF9
0026
FFE5
FFF5
FFDC
FFE5
FFBB
FFCE
FFF5
0018
0036
0014
FFD8
0006
FFFD
FFFA
000B
0013
FFED
FFF5
FFE5
0015
0003
0005
FFDC
FFFF
0000
FFBC
0005
001D
0000
FFFC
0035
FFF0
000A
0007
FFFE
FFE4
FFFF
0006
001E
FFEE
0044
000E
FFDA
002B
FFB7
FFD6
0039
0012
FFED
0018
FFF3
0037
0053
FFC2
0018
FFCE
FFE4
FFD0
001D
FFB7
FF82
003E
0031
000C
0000
001F
FFA5
FFF0
FFCD
0039
003A
0023
0019
002F
FFFA
FFA1
001D
FFD7
FFF9
FFD2
0036
FFE2
FFF5
0035
FFFF
0024
FF74
FFA2
0030
000C
000C
0067
FFE6
0018
0023
0028
FF79
FFCA
FFDB
FFF2
FFE9
FFE6
0025
FFDF
FFFB
0027
001F
FFDB
FFE5
FFFE
0004
002C
0018
0018
FFD7
002D
0015
0030
0010
FFB6
002C
FFF6
FFD1
FFF6
0013
0022
FFCF
0037
FFEC
FFDF
0028
001A
001E
FFCE
FFF5
FF57
FFA9
0005
FFF2
0025
FF2E
FFA9
0006
0016
000C
FFF1
FFF6
0005
FFD4
FFE7
FFEC
0010
002E
FFF3
0011
FFD0
0012
FF79
004A
FFE1
0005
FFE9
0007
000F
0021
FFF9
0022
FFE5
0045
000B
0012
0060
FFD3
002B
0016
000F
FFE1
0007
FFE5
0006
0014
000C
FFF4
FFEA
0003
0018
0000
FFF4
FFF6
0051
001F
0024
001B
0016
FFF1
FFBF
FFF5
FFE8
000C
FFF1
0036
0034
000F
0003
001F
0015
001E
0021
0033
FFEC
0039
FFEB
0003
FFD8
FFF2
0018
0006
001A
0008
0026
FF91
0011
FFD8
0025
FFDA
002A
000B
001A
0022
0005
0030
FFD9
000F
002B
FFDC
FFE6
FFC0
FF8B
FFC0
0021
FFF2
0013
FFFE
FFC7
FFE3
0006
0035
FFA4
0008
0003
0029
FFE1
0027
001E
0019
0020
FFFF
0025
FFF7
FFDC
FFF0
FFBB
FFDD
FFEF
0000
FFE6
FFE3
FFFD
FFCB
002A
FFD3
0037
0028
0016
FFB5
0000
FFCF
0003
FFD8
FFD2
001A
001B
000B
FFF7
FFEC
FFDD
0027
FFF0
000F
FFFA
000F
FFFC
FFCC
0023
FFF6
FFDE
0039
FFEC
