0032
FFE6
001F
FFBA
0061
FF9B
FFDC
001D
FFD0
0016
0034
FF75
0033
0039
FF51
FF1F
001D
001A
003E
0024
FFC1
FFB8
FF90
FFF6
FFB2
002D
0045
FFE8
001A
006A
FFDB
FFA0
001E
FFA3
0085
FF79
002D
0026
0038
002C
0033
0042
0057
002F
0039
FF6A
00BD
0057
001E
FFF9
FF02
FFEB
FFDE
FFE4
FFC3
FF9A
FFD4
008D
0001
0047
FFDA
FFBB
FF89
FFB6
FFDB
002D
FFB1
0025
FF12
FFD8
0008
0026
0016
0032
0039
FFDF
FFE1
FFB6
00CE
FFF6
FF61
002F
FFB4
0035
FF98
0097
FFE1
001C
0049
003A
0034
002F
002A
FFB7
FFAA
0017
FF9F
FFDC
FFC9
0068
FFEE
0012
FFD3
FFFC
001B
0031
FFBD
FF7C
FFE3
0087
0007
FF7D
FFCA
FF97
FF3E
FFE0
004D
FFA3
003B
001F
0022
FF8C
001F
FFC3
0028
0012
0038
FFD8
FFCB
FF9E
001F
001B
FF49
0084
0063
FFC4
001E
FFE5
FFCA
009B
FF74
FFFE
FFBC
00B7
FF6F
FFEF
0016
0008
004F
FFA4
0081
000D
0051
FFE4
FFF8
FF93
FFE9
FF74
003D
008C
001A
0088
FF85
0002
0016
FFC7
002B
0003
0000
FF86
FF6E
FFB9
FFB2
FF43
FF1F
FFC3
003D
002F
001A
001B
FFA5
0055
002E
001C
0055
FFA5
002C
FFB2
002E
003F
002E
0059
FFD6
0027
0001
FF52
006F
FF8B
FF83
FFB7
FFCA
FFC9
FFFA
003A
0011
FFF4
0020
0063
003F
FFDF
FF9E
FFA9
004A
0042
FFF0
FF6E
0043
FFFF
FFDD
FFDB
FFD3
0000
004B
0042
0031
000D
FFFC
0013
FF86
FFB0
FF8A
FF8E
FFD9
FFF7
FFA9
0043
FFD1
0078
FFAC
001E
FFED
FFE9
010A
FFE7
FFEB
0047
FFF8
0054
FFB0
FF46
FF3E
FFE4
FFE6
FFC2
007F
FFC4
0008
FFCF
FFF8
FFF3
FFEC
FFFF
0002
0014
FFB0
FFFF
FFED
0002
0002
001D
0024
FF87
0022
FFBC
003D
FFD3
FFCF
FFD7
0022
FFFA
FFC6
FFDF
FF98
0040
FFC2
0024
001B
FF91
FFD1
0027
FFE4
0029
FFD5
FFDC
FFBE
0000
FFA6
FFE8
005B
FFE3
0023
0020
FE8D
FFD5
FFC4
001D
005A
0007
FFAD
FFE4
0000
FFBD
FFD4
001F
0018
0008
FFFE
000F
FF45
0006
